/*

Run on Arduino Nano 33 BLE Sense.

LED on when walking
Switch the red LED on when running

This model use non sacaled data

Mbed Os version: 1.1.6
Arduino_TensorFlowLite: 1.15.0-ALPHA-precompiled
Arduino_LSM9DS1: 1.1.0

author: nakmuaycoder
date: 01/21
*/

#include "model.h"

alignas(8) const unsigned char mdl[] = {
0x1c, 0x00, 0x00, 0x00, 0x54, 0x46, 0x4c, 0x33, 0x00, 0x00, 0x12, 0x00,
  0x1c, 0x00, 0x04, 0x00, 0x08, 0x00, 0x0c, 0x00, 0x10, 0x00, 0x14, 0x00,
  0x00, 0x00, 0x18, 0x00, 0x12, 0x00, 0x00, 0x00, 0x03, 0x00, 0x00, 0x00,
  0x14, 0x00, 0x00, 0x00, 0x28, 0x00, 0x00, 0x00, 0xd0, 0x00, 0x00, 0x00,
  0x28, 0x00, 0x00, 0x00, 0x78, 0x00, 0x00, 0x00, 0x05, 0x00, 0x00, 0x00,
  0xe8, 0x06, 0x00, 0x00, 0x08, 0x06, 0x00, 0x00, 0x6c, 0x03, 0x00, 0x00,
  0xbc, 0x02, 0x00, 0x00, 0x98, 0x01, 0x00, 0x00, 0x01, 0x00, 0x00, 0x00,
  0xcc, 0x00, 0x00, 0x00, 0x14, 0x00, 0x00, 0x00, 0xf8, 0x1d, 0x00, 0x00,
  0xf4, 0x1d, 0x00, 0x00, 0xe8, 0x1c, 0x00, 0x00, 0x30, 0x1c, 0x00, 0x00,
  0x88, 0x1b, 0x00, 0x00, 0x1c, 0x1b, 0x00, 0x00, 0xa8, 0x1a, 0x00, 0x00,
  0x54, 0x12, 0x00, 0x00, 0xb8, 0x11, 0x00, 0x00, 0xdc, 0x0f, 0x00, 0x00,
  0x7c, 0x07, 0x00, 0x00, 0xcc, 0x1d, 0x00, 0x00, 0xc8, 0x1d, 0x00, 0x00,
  0xc4, 0x1d, 0x00, 0x00, 0xc0, 0x1d, 0x00, 0x00, 0xbc, 0x1d, 0x00, 0x00,
  0xb8, 0x1d, 0x00, 0x00, 0xb4, 0x1d, 0x00, 0x00, 0xb0, 0x1d, 0x00, 0x00,
  0x38, 0x00, 0x00, 0x00, 0x01, 0x00, 0x00, 0x00, 0x0c, 0x00, 0x00, 0x00,
  0x08, 0x00, 0x0c, 0x00, 0x04, 0x00, 0x08, 0x00, 0x08, 0x00, 0x00, 0x00,
  0x08, 0x00, 0x00, 0x00, 0x13, 0x00, 0x00, 0x00, 0x13, 0x00, 0x00, 0x00,
  0x6d, 0x69, 0x6e, 0x5f, 0x72, 0x75, 0x6e, 0x74, 0x69, 0x6d, 0x65, 0x5f,
  0x76, 0x65, 0x72, 0x73, 0x69, 0x6f, 0x6e, 0x00, 0x9a, 0xe3, 0xff, 0xff,
  0x04, 0x00, 0x00, 0x00, 0x10, 0x00, 0x00, 0x00, 0x31, 0x2e, 0x31, 0x34,
  0x2e, 0x30, 0x00, 0x00, 0x00, 0x00, 0x00, 0x00, 0x00, 0x00, 0x00, 0x00,
  0x0f, 0x00, 0x00, 0x00, 0x4d, 0x4c, 0x49, 0x52, 0x20, 0x43, 0x6f, 0x6e,
  0x76, 0x65, 0x72, 0x74, 0x65, 0x64, 0x2e, 0x00, 0x00, 0x00, 0x0e, 0x00,
  0x18, 0x00, 0x04, 0x00, 0x08, 0x00, 0x0c, 0x00, 0x10, 0x00, 0x14, 0x00,
  0x0e, 0x00, 0x00, 0x00, 0x14, 0x00, 0x00, 0x00, 0x5c, 0x00, 0x00, 0x00,
  0x60, 0x00, 0x00, 0x00, 0x64, 0x00, 0x00, 0x00, 0x84, 0x00, 0x00, 0x00,
  0x12, 0x00, 0x00, 0x00, 0xbc, 0x1c, 0x00, 0x00, 0x48, 0x1c, 0x00, 0x00,
  0xa0, 0x1b, 0x00, 0x00, 0xf8, 0x1a, 0x00, 0x00, 0x64, 0x1a, 0x00, 0x00,
  0xdc, 0x19, 0x00, 0x00, 0x84, 0x19, 0x00, 0x00, 0x28, 0x11, 0x00, 0x00,
  0x8c, 0x10, 0x00, 0x00, 0xac, 0x0e, 0x00, 0x00, 0xcc, 0x05, 0x00, 0x00,
  0xec, 0x04, 0x00, 0x00, 0xa4, 0x03, 0x00, 0x00, 0xf4, 0x02, 0x00, 0x00,
  0x48, 0x02, 0x00, 0x00, 0x98, 0x01, 0x00, 0x00, 0xec, 0x00, 0x00, 0x00,
  0x70, 0x00, 0x00, 0x00, 0x01, 0x00, 0x00, 0x00, 0x00, 0x00, 0x00, 0x00,
  0x01, 0x00, 0x00, 0x00, 0x11, 0x00, 0x00, 0x00, 0x08, 0x00, 0x00, 0x00,
  0x38, 0x05, 0x00, 0x00, 0x5c, 0x04, 0x00, 0x00, 0x34, 0x03, 0x00, 0x00,
  0x80, 0x02, 0x00, 0x00, 0xe4, 0x01, 0x00, 0x00, 0x18, 0x01, 0x00, 0x00,
  0x84, 0x00, 0x00, 0x00, 0x10, 0x00, 0x00, 0x00, 0x04, 0x00, 0x00, 0x00,
  0x6d, 0x61, 0x69, 0x6e, 0x00, 0x00, 0x00, 0x00, 0x42, 0xfe, 0xff, 0xff,
  0x04, 0x00, 0x00, 0x00, 0x10, 0x00, 0x00, 0x00, 0x04, 0x00, 0x00, 0x00,
  0x01, 0x00, 0x00, 0x00, 0x11, 0x00, 0x00, 0x00, 0x01, 0x00, 0x00, 0x00,
  0x10, 0x00, 0x00, 0x00, 0xca, 0xfa, 0xff, 0xff, 0x00, 0x00, 0x00, 0x0e,
  0x01, 0x00, 0x00, 0x00, 0x0c, 0xe4, 0xff, 0xff, 0x14, 0x00, 0x00, 0x00,
  0x12, 0x00, 0x00, 0x00, 0x18, 0x00, 0x00, 0x00, 0x30, 0x00, 0x00, 0x00,
  0x20, 0x00, 0x00, 0x00, 0x02, 0x00, 0x00, 0x00, 0x01, 0x00, 0x00, 0x00,
  0x01, 0x00, 0x00, 0x00, 0x08, 0x00, 0x00, 0x00, 0x49, 0x64, 0x65, 0x6e,
  0x74, 0x69, 0x74, 0x79, 0x00, 0x00, 0x00, 0x00, 0x02, 0x00, 0x00, 0x00,
  0xff, 0xff, 0xff, 0xff, 0x01, 0x00, 0x00, 0x00, 0xe0, 0xe3, 0xff, 0xff,
  0x1e, 0xfe, 0xff, 0xff, 0x00, 0x00, 0x00, 0x08, 0x03, 0x00, 0x00, 0x00,
  0x18, 0x00, 0x00, 0x00, 0x0c, 0x00, 0x00, 0x00, 0x04, 0x00, 0x00, 0x00,
  0xfc, 0xe3, 0xff, 0xff, 0x01, 0x00, 0x00, 0x00, 0x10, 0x00, 0x00, 0x00,
  0x03, 0x00, 0x00, 0x00, 0x0f, 0x00, 0x00, 0x00, 0x07, 0x00, 0x00, 0x00,
  0x05, 0x00, 0x00, 0x00, 0x84, 0xe4, 0xff, 0xff, 0x14, 0x00, 0x00, 0x00,
  0x11, 0x00, 0x00, 0x00, 0x18, 0x00, 0x00, 0x00, 0x48, 0x00, 0x00, 0x00,
  0x38, 0x00, 0x00, 0x00, 0x02, 0x00, 0x00, 0x00, 0x01, 0x00, 0x00, 0x00,
  0x01, 0x00, 0x00, 0x00, 0x22, 0x00, 0x00, 0x00, 0x63, 0x6f, 0x6e, 0x76,
  0x6f, 0x6c, 0x75, 0x74, 0x69, 0x6f, 0x6e, 0x61, 0x6c, 0x2f, 0x6f, 0x75,
  0x74, 0x70, 0x75, 0x74, 0x5f, 0x6c, 0x61, 0x79, 0x65, 0x72, 0x2f, 0x42,
  0x69, 0x61, 0x73, 0x41, 0x64, 0x64, 0x00, 0x00, 0x02, 0x00, 0x00, 0x00,
  0xff, 0xff, 0xff, 0xff, 0x01, 0x00, 0x00, 0x00, 0x70, 0xe4, 0xff, 0xff,
  0xda, 0xfc, 0xff, 0xff, 0x00, 0x00, 0x00, 0x08, 0x03, 0x00, 0x00, 0x00,
  0x24, 0x00, 0x00, 0x00, 0x18, 0x00, 0x00, 0x00, 0x0c, 0x00, 0x00, 0x00,
  0x00, 0x00, 0x06, 0x00, 0x08, 0x00, 0x07, 0x00, 0x06, 0x00, 0x00, 0x00,
  0x00, 0x00, 0x00, 0x01, 0x01, 0x00, 0x00, 0x00, 0x0f, 0x00, 0x00, 0x00,
  0x03, 0x00, 0x00, 0x00, 0x0e, 0x00, 0x00, 0x00, 0x06, 0x00, 0x00, 0x00,
  0x03, 0x00, 0x00, 0x00, 0xea, 0xfb, 0xff, 0xff, 0x00, 0x00, 0x00, 0x09,
  0x01, 0x00, 0x00, 0x00, 0x2c, 0xe5, 0xff, 0xff, 0x14, 0x00, 0x00, 0x00,
  0x10, 0x00, 0x00, 0x00, 0x18, 0x00, 0x00, 0x00, 0x5c, 0x00, 0x00, 0x00,
  0x4c, 0x00, 0x00, 0x00, 0x02, 0x00, 0x00, 0x00, 0x01, 0x00, 0x00, 0x00,
  0x10, 0x00, 0x00, 0x00, 0x34, 0x00, 0x00, 0x00, 0x63, 0x6f, 0x6e, 0x76,
  0x6f, 0x6c, 0x75, 0x74, 0x69, 0x6f, 0x6e, 0x61, 0x6c, 0x2f, 0x64, 0x65,
  0x6e, 0x73, 0x65, 0x2f, 0x52, 0x65, 0x6c, 0x75, 0x3b, 0x63, 0x6f, 0x6e,
  0x76, 0x6f, 0x6c, 0x75, 0x74, 0x69, 0x6f, 0x6e, 0x61, 0x6c, 0x2f, 0x64,
  0x65, 0x6e, 0x73, 0x65, 0x2f, 0x42, 0x69, 0x61, 0x73, 0x41, 0x64, 0x64,
  0x00, 0x00, 0x00, 0x00, 0x02, 0x00, 0x00, 0x00, 0xff, 0xff, 0xff, 0xff,
  0x10, 0x00, 0x00, 0x00, 0x40, 0xe6, 0xff, 0xff, 0x00, 0x00, 0x0a, 0x00,
  0x10, 0x00, 0x04, 0x00, 0x08, 0x00, 0x0c, 0x00, 0x0a, 0x00, 0x00, 0x00,
  0x02, 0x00, 0x00, 0x00, 0x10, 0x00, 0x00, 0x00, 0x04, 0x00, 0x00, 0x00,
  0x01, 0x00, 0x00, 0x00, 0x0e, 0x00, 0x00, 0x00, 0x02, 0x00, 0x00, 0x00,
  0x0d, 0x00, 0x00, 0x00, 0x04, 0x00, 0x00, 0x00, 0x96, 0xfc, 0xff, 0xff,
  0x00, 0x00, 0x00, 0x16, 0x01, 0x00, 0x00, 0x00, 0xd8, 0xe5, 0xff, 0xff,
  0x14, 0x00, 0x00, 0x00, 0x0f, 0x00, 0x00, 0x00, 0x18, 0x00, 0x00, 0x00,
  0x44, 0x00, 0x00, 0x00, 0x34, 0x00, 0x00, 0x00, 0x02, 0x00, 0x00, 0x00,
  0x01, 0x00, 0x00, 0x00, 0x20, 0x00, 0x00, 0x00, 0x1d, 0x00, 0x00, 0x00,
  0x63, 0x6f, 0x6e, 0x76, 0x6f, 0x6c, 0x75, 0x74, 0x69, 0x6f, 0x6e, 0x61,
  0x6c, 0x2f, 0x66, 0x6c, 0x61, 0x74, 0x74, 0x65, 0x6e, 0x2f, 0x52, 0x65,
  0x73, 0x68, 0x61, 0x70, 0x65, 0x00, 0x00, 0x00, 0x02, 0x00, 0x00, 0x00,
  0xff, 0xff, 0xff, 0xff, 0x20, 0x00, 0x00, 0x00, 0xd4, 0xe6, 0xff, 0xff,
  0x00, 0x00, 0x0e, 0x00, 0x18, 0x00, 0x08, 0x00, 0x0c, 0x00, 0x10, 0x00,
  0x07, 0x00, 0x14, 0x00, 0x0e, 0x00, 0x00, 0x00, 0x00, 0x00, 0x00, 0x05,
  0x01, 0x00, 0x00, 0x00, 0x2c, 0x00, 0x00, 0x00, 0x20, 0x00, 0x00, 0x00,
  0x04, 0x00, 0x00, 0x00, 0x2a, 0xfe, 0xff, 0xff, 0x02, 0x00, 0x00, 0x00,
  0x01, 0x00, 0x00, 0x00, 0x02, 0x00, 0x00, 0x00, 0x01, 0x00, 0x00, 0x00,
  0x00, 0x00, 0x00, 0x01, 0x01, 0x00, 0x00, 0x00, 0x0d, 0x00, 0x00, 0x00,
  0x01, 0x00, 0x00, 0x00, 0x0c, 0x00, 0x00, 0x00, 0x80, 0xe6, 0xff, 0xff,
  0x14, 0x00, 0x00, 0x00, 0x0e, 0x00, 0x00, 0x00, 0x20, 0x00, 0x00, 0x00,
  0x5c, 0x00, 0x00, 0x00, 0x44, 0x00, 0x00, 0x00, 0x04, 0x00, 0x00, 0x00,
  0x01, 0x00, 0x00, 0x00, 0x02, 0x00, 0x00, 0x00, 0x01, 0x00, 0x00, 0x00,
  0x10, 0x00, 0x00, 0x00, 0x25, 0x00, 0x00, 0x00, 0x63, 0x6f, 0x6e, 0x76,
  0x6f, 0x6c, 0x75, 0x74, 0x69, 0x6f, 0x6e, 0x61, 0x6c, 0x2f, 0x6d, 0x61,
  0x78, 0x5f, 0x70, 0x6f, 0x6f, 0x6c, 0x69, 0x6e, 0x67, 0x32, 0x64, 0x5f,
  0x31, 0x2f, 0x4d, 0x61, 0x78, 0x50, 0x6f, 0x6f, 0x6c, 0x00, 0x00, 0x00,
  0x04, 0x00, 0x00, 0x00, 0xff, 0xff, 0xff, 0xff, 0x02, 0x00, 0x00, 0x00,
  0x01, 0x00, 0x00, 0x00, 0x10, 0x00, 0x00, 0x00, 0x80, 0xe6, 0xff, 0xff,
  0x12, 0xfe, 0xff, 0xff, 0x00, 0x00, 0x00, 0x01, 0x24, 0x00, 0x00, 0x00,
  0x18, 0x00, 0x00, 0x00, 0x04, 0x00, 0x00, 0x00, 0x04, 0xfe, 0xff, 0xff,
  0x01, 0x00, 0x00, 0x00, 0x01, 0x00, 0x00, 0x00, 0x00, 0x00, 0x00, 0x01,
  0x01, 0x00, 0x00, 0x00, 0x0c, 0x00, 0x00, 0x00, 0x03, 0x00, 0x00, 0x00,
  0x0b, 0x00, 0x00, 0x00, 0x09, 0x00, 0x00, 0x00, 0x02, 0x00, 0x00, 0x00,
  0x2c, 0xe7, 0xff, 0xff, 0x14, 0x00, 0x00, 0x00, 0x0d, 0x00, 0x00, 0x00,
  0x20, 0x00, 0x00, 0x00, 0xc4, 0x00, 0x00, 0x00, 0xac, 0x00, 0x00, 0x00,
  0x04, 0x00, 0x00, 0x00, 0x01, 0x00, 0x00, 0x00, 0x05, 0x00, 0x00, 0x00,
  0x01, 0x00, 0x00, 0x00, 0x10, 0x00, 0x00, 0x00, 0x8f, 0x00, 0x00, 0x00,
  0x63, 0x6f, 0x6e, 0x76, 0x6f, 0x6c, 0x75, 0x74, 0x69, 0x6f, 0x6e, 0x61,
  0x6c, 0x2f, 0x63, 0x6f, 0x6e, 0x76, 0x32, 0x64, 0x5f, 0x31, 0x2f, 0x52,
  0x65, 0x6c, 0x75, 0x3b, 0x63, 0x6f, 0x6e, 0x76, 0x6f, 0x6c, 0x75, 0x74,
  0x69, 0x6f, 0x6e, 0x61, 0x6c, 0x2f, 0x63, 0x6f, 0x6e, 0x76, 0x32, 0x64,
  0x5f, 0x31, 0x2f, 0x42, 0x69, 0x61, 0x73, 0x41, 0x64, 0x64, 0x3b, 0x63,
  0x6f, 0x6e, 0x76, 0x6f, 0x6c, 0x75, 0x74, 0x69, 0x6f, 0x6e, 0x61, 0x6c,
  0x2f, 0x63, 0x6f, 0x6e, 0x76, 0x32, 0x64, 0x5f, 0x31, 0x2f, 0x43, 0x6f,
  0x6e, 0x76, 0x32, 0x44, 0x3b, 0x63, 0x6f, 0x6e, 0x76, 0x6f, 0x6c, 0x75,
  0x74, 0x69, 0x6f, 0x6e, 0x61, 0x6c, 0x2f, 0x63, 0x6f, 0x6e, 0x76, 0x32,
  0x64, 0x5f, 0x31, 0x2f, 0x42, 0x69, 0x61, 0x73, 0x41, 0x64, 0x64, 0x2f,
  0x52, 0x65, 0x61, 0x64, 0x56, 0x61, 0x72, 0x69, 0x61, 0x62, 0x6c, 0x65,
  0x4f, 0x70, 0x2f, 0x72, 0x65, 0x73, 0x6f, 0x75, 0x72, 0x63, 0x65, 0x00,
  0x04, 0x00, 0x00, 0x00, 0xff, 0xff, 0xff, 0xff, 0x05, 0x00, 0x00, 0x00,
  0x01, 0x00, 0x00, 0x00, 0x10, 0x00, 0x00, 0x00, 0xa8, 0xe8, 0xff, 0xff,
  0x00, 0x00, 0x0e, 0x00, 0x1a, 0x00, 0x08, 0x00, 0x0c, 0x00, 0x10, 0x00,
  0x07, 0x00, 0x14, 0x00, 0x0e, 0x00, 0x00, 0x00, 0x00, 0x00, 0x00, 0x05,
  0x01, 0x00, 0x00, 0x00, 0x3c, 0x00, 0x00, 0x00, 0x30, 0x00, 0x00, 0x00,
  0x14, 0x00, 0x00, 0x00, 0x00, 0x00, 0x0e, 0x00, 0x18, 0x00, 0x17, 0x00,
  0x10, 0x00, 0x0c, 0x00, 0x08, 0x00, 0x04, 0x00, 0x0e, 0x00, 0x00, 0x00,
  0x02, 0x00, 0x00, 0x00, 0x02, 0x00, 0x00, 0x00, 0x02, 0x00, 0x00, 0x00,
  0x02, 0x00, 0x00, 0x00, 0x00, 0x00, 0x00, 0x01, 0x01, 0x00, 0x00, 0x00,
  0x0b, 0x00, 0x00, 0x00, 0x01, 0x00, 0x00, 0x00, 0x0a, 0x00, 0x00, 0x00,
  0x2e, 0xff, 0xff, 0xff, 0x00, 0x00, 0x00, 0x11, 0x01, 0x00, 0x00, 0x00,
  0x70, 0xe8, 0xff, 0xff, 0x14, 0x00, 0x00, 0x00, 0x0c, 0x00, 0x00, 0x00,
  0x20, 0x00, 0x00, 0x00, 0x58, 0x00, 0x00, 0x00, 0x40, 0x00, 0x00, 0x00,
  0x04, 0x00, 0x00, 0x00, 0x01, 0x00, 0x00, 0x00, 0x05, 0x00, 0x00, 0x00,
  0x01, 0x00, 0x00, 0x00, 0x08, 0x00, 0x00, 0x00, 0x23, 0x00, 0x00, 0x00,
  0x63, 0x6f, 0x6e, 0x76, 0x6f, 0x6c, 0x75, 0x74, 0x69, 0x6f, 0x6e, 0x61,
  0x6c, 0x2f, 0x6d, 0x61, 0x78, 0x5f, 0x70, 0x6f, 0x6f, 0x6c, 0x69, 0x6e,
  0x67, 0x32, 0x64, 0x2f, 0x4d, 0x61, 0x78, 0x50, 0x6f, 0x6f, 0x6c, 0x00,
  0x04, 0x00, 0x00, 0x00, 0xff, 0xff, 0xff, 0xff, 0x05, 0x00, 0x00, 0x00,
  0x01, 0x00, 0x00, 0x00, 0x08, 0x00, 0x00, 0x00, 0x80, 0xe9, 0xff, 0xff,
  0x00, 0x00, 0x0e, 0x00, 0x14, 0x00, 0x00, 0x00, 0x08, 0x00, 0x0c, 0x00,
  0x07, 0x00, 0x10, 0x00, 0x0e, 0x00, 0x00, 0x00, 0x00, 0x00, 0x00, 0x01,
  0x30, 0x00, 0x00, 0x00, 0x24, 0x00, 0x00, 0x00, 0x10, 0x00, 0x00, 0x00,
  0x0c, 0x00, 0x10, 0x00, 0x00, 0x00, 0x04, 0x00, 0x08, 0x00, 0x0f, 0x00,
  0x0c, 0x00, 0x00, 0x00, 0x01, 0x00, 0x00, 0x00, 0x01, 0x00, 0x00, 0x00,
  0x00, 0x00, 0x00, 0x01, 0x01, 0x00, 0x00, 0x00, 0x0a, 0x00, 0x00, 0x00,
  0x03, 0x00, 0x00, 0x00, 0x00, 0x00, 0x00, 0x00, 0x08, 0x00, 0x00, 0x00,
  0x01, 0x00, 0x00, 0x00, 0x00, 0x00, 0x0a, 0x00, 0x0c, 0x00, 0x07, 0x00,
  0x00, 0x00, 0x08, 0x00, 0x0a, 0x00, 0x00, 0x00, 0x00, 0x00, 0x00, 0x03,
  0x01, 0x00, 0x00, 0x00, 0x4c, 0xe9, 0xff, 0xff, 0x14, 0x00, 0x00, 0x00,
  0x0b, 0x00, 0x00, 0x00, 0x20, 0x00, 0x00, 0x00, 0xbc, 0x00, 0x00, 0x00,
  0xa4, 0x00, 0x00, 0x00, 0x04, 0x00, 0x00, 0x00, 0x01, 0x00, 0x00, 0x00,
  0x0a, 0x00, 0x00, 0x00, 0x03, 0x00, 0x00, 0x00, 0x08, 0x00, 0x00, 0x00,
  0x87, 0x00, 0x00, 0x00, 0x63, 0x6f, 0x6e, 0x76, 0x6f, 0x6c, 0x75, 0x74,
  0x69, 0x6f, 0x6e, 0x61, 0x6c, 0x2f, 0x63, 0x6f, 0x6e, 0x76, 0x32, 0x64,
  0x2f, 0x52, 0x65, 0x6c, 0x75, 0x3b, 0x63, 0x6f, 0x6e, 0x76, 0x6f, 0x6c,
  0x75, 0x74, 0x69, 0x6f, 0x6e, 0x61, 0x6c, 0x2f, 0x63, 0x6f, 0x6e, 0x76,
  0x32, 0x64, 0x2f, 0x42, 0x69, 0x61, 0x73, 0x41, 0x64, 0x64, 0x3b, 0x63,
  0x6f, 0x6e, 0x76, 0x6f, 0x6c, 0x75, 0x74, 0x69, 0x6f, 0x6e, 0x61, 0x6c,
  0x2f, 0x63, 0x6f, 0x6e, 0x76, 0x32, 0x64, 0x2f, 0x43, 0x6f, 0x6e, 0x76,
  0x32, 0x44, 0x3b, 0x63, 0x6f, 0x6e, 0x76, 0x6f, 0x6c, 0x75, 0x74, 0x69,
  0x6f, 0x6e, 0x61, 0x6c, 0x2f, 0x63, 0x6f, 0x6e, 0x76, 0x32, 0x64, 0x2f,
  0x42, 0x69, 0x61, 0x73, 0x41, 0x64, 0x64, 0x2f, 0x52, 0x65, 0x61, 0x64,
  0x56, 0x61, 0x72, 0x69, 0x61, 0x62, 0x6c, 0x65, 0x4f, 0x70, 0x2f, 0x72,
  0x65, 0x73, 0x6f, 0x75, 0x72, 0x63, 0x65, 0x00, 0x04, 0x00, 0x00, 0x00,
  0xff, 0xff, 0xff, 0xff, 0x0a, 0x00, 0x00, 0x00, 0x03, 0x00, 0x00, 0x00,
  0x08, 0x00, 0x00, 0x00, 0xac, 0xe9, 0xff, 0xff, 0xba, 0xea, 0xff, 0xff,
  0x04, 0x00, 0x00, 0x00, 0x00, 0x08, 0x00, 0x00, 0x30, 0xe3, 0x84, 0xbe,
  0x01, 0xb3, 0x10, 0xbe, 0x33, 0x50, 0x97, 0x3d, 0x2d, 0x23, 0xcf, 0xbd,
  0xa9, 0x60, 0x40, 0x3c, 0x2a, 0xca, 0x23, 0xbe, 0x70, 0x07, 0x67, 0x3e,
  0xe9, 0x88, 0x06, 0xbf, 0xb7, 0x42, 0xe9, 0xbe, 0x6a, 0x4a, 0xd9, 0xbc,
  0x9c, 0x1d, 0x18, 0x3d, 0x82, 0xbd, 0xcf, 0xbe, 0x75, 0xf4, 0x03, 0x3f,
  0x9b, 0x63, 0xdc, 0xbe, 0x7b, 0xf1, 0x51, 0x3e, 0x85, 0x3a, 0x5d, 0xbf,
  0x56, 0xbe, 0xfd, 0xbe, 0x5a, 0x04, 0x87, 0xbd, 0x7a, 0xa6, 0xf7, 0xbd,
  0xa0, 0xc7, 0xf3, 0xbe, 0x85, 0x3d, 0x2b, 0x3e, 0x14, 0xc4, 0x22, 0xbf,
  0xee, 0x67, 0xb3, 0xbe, 0x5c, 0xd0, 0x39, 0xbf, 0x26, 0x90, 0x8a, 0xbe,
  0xa0, 0x01, 0x00, 0xbd, 0x1c, 0x37, 0x0e, 0x3c, 0x5d, 0xa1, 0x59, 0xbe,
  0xa9, 0x63, 0xa0, 0x3e, 0xb2, 0x00, 0xa5, 0xbe, 0xbb, 0x0f, 0x6d, 0x3d,
  0x0c, 0x49, 0x24, 0xbf, 0x9a, 0xab, 0xeb, 0x3d, 0x07, 0x44, 0x02, 0xbf,
  0x8b, 0x52, 0x3b, 0xbe, 0x86, 0x87, 0x19, 0x3e, 0x1c, 0xdc, 0xa6, 0xbe,
  0x9f, 0x58, 0x83, 0xbe, 0x69, 0x0d, 0x0c, 0x3f, 0x5d, 0x60, 0xd4, 0x3d,
  0x56, 0x03, 0x0f, 0x3f, 0xea, 0x3f, 0xd5, 0xbb, 0x7a, 0x6b, 0xbe, 0xbd,
  0x51, 0x25, 0xdd, 0x3d, 0x2c, 0x65, 0x34, 0xbd, 0x61, 0x14, 0x45, 0xbe,
  0x8b, 0xa8, 0x76, 0x3d, 0xb4, 0x5f, 0x64, 0xbe, 0x99, 0xe4, 0x2f, 0x3e,
  0xc5, 0x12, 0xc9, 0xbe, 0x08, 0x02, 0x5e, 0xbe, 0x38, 0xe5, 0x89, 0xbe,
  0xff, 0xf7, 0x4d, 0x3e, 0x2b, 0x7f, 0x78, 0xbe, 0xb4, 0x88, 0x3c, 0xbd,
  0x0f, 0xc1, 0xc2, 0xbd, 0x72, 0xc4, 0x7e, 0x3e, 0xac, 0x39, 0xac, 0xbe,
  0x3d, 0x96, 0x21, 0x3f, 0xe9, 0x28, 0xc8, 0xbe, 0x38, 0x37, 0xe6, 0xbd,
  0xe3, 0x63, 0xca, 0xbe, 0x82, 0x10, 0x62, 0x3e, 0x51, 0x70, 0xdc, 0x3d,
  0x1e, 0xe8, 0x0f, 0xbe, 0xdd, 0x2d, 0xba, 0xbd, 0x5c, 0x6f, 0x6b, 0x3e,
  0x6b, 0xf5, 0x9b, 0xbe, 0xc0, 0xcc, 0x5c, 0x3e, 0x10, 0x9e, 0xa6, 0xbe,
  0x15, 0xb5, 0x49, 0x3e, 0xfb, 0xeb, 0xe3, 0xbe, 0xc1, 0xf0, 0xc9, 0xbe,
  0xb5, 0x9d, 0x4a, 0xbe, 0x13, 0x08, 0x2f, 0x3e, 0x7a, 0x72, 0xfc, 0xbe,
  0x26, 0xf3, 0xd6, 0x3e, 0x00, 0x78, 0xdd, 0xbe, 0x13, 0x45, 0x60, 0x3d,
  0x20, 0xe6, 0x25, 0xbf, 0x33, 0x55, 0x2a, 0xbf, 0xe8, 0xcc, 0x17, 0x3e,
  0x58, 0x3a, 0x0b, 0xbe, 0xbe, 0xfd, 0xee, 0xbe, 0xdb, 0x59, 0xcc, 0xbc,
  0x8a, 0xe1, 0xdd, 0xbe, 0x73, 0x62, 0x44, 0x3d, 0x85, 0x2e, 0x0a, 0xbf,
  0xf3, 0xbd, 0xd4, 0xbe, 0xa8, 0xbf, 0x99, 0x3e, 0xad, 0xb9, 0x54, 0xbe,
  0xa8, 0xeb, 0x48, 0xbe, 0x8f, 0x2b, 0x8d, 0x3e, 0x80, 0xc4, 0xf6, 0x3c,
  0x70, 0xf3, 0x6f, 0xba, 0xb2, 0x08, 0x7f, 0xbe, 0xaa, 0x36, 0x8b, 0xbe,
  0xdb, 0x53, 0x9d, 0xbe, 0x58, 0x88, 0x97, 0xbe, 0x07, 0x7a, 0xca, 0x3e,
  0x36, 0x7f, 0xc0, 0xbc, 0xe3, 0x27, 0x30, 0x3e, 0xdc, 0xed, 0xf8, 0x3d,
  0xc5, 0x24, 0x4a, 0x3e, 0x03, 0xad, 0x80, 0xbe, 0x1a, 0x5e, 0xcb, 0xbe,
  0x64, 0x9d, 0x01, 0xbf, 0xe4, 0x84, 0x13, 0xbe, 0x6f, 0xb3, 0x96, 0xbe,
  0x18, 0x26, 0x0b, 0x3e, 0x86, 0xa8, 0x8e, 0x3d, 0x46, 0xa1, 0x2c, 0x3e,
  0xfe, 0xde, 0x1e, 0xbe, 0x6d, 0x9a, 0xcd, 0xbe, 0xc3, 0xe4, 0x1f, 0x3e,
  0x74, 0x70, 0x43, 0x3f, 0xde, 0x1e, 0x91, 0x3e, 0xa1, 0x9d, 0x04, 0xbe,
  0x90, 0x54, 0xa5, 0x3e, 0xa7, 0xf3, 0xb6, 0xbc, 0x78, 0x1f, 0x00, 0xbe,
  0xf8, 0x5e, 0x12, 0xbf, 0xd5, 0x76, 0xde, 0xbe, 0xb4, 0x70, 0x78, 0x39,
  0x94, 0xfd, 0xaa, 0xbe, 0x1b, 0xf1, 0x06, 0xbd, 0xb6, 0xdc, 0xc2, 0x3d,
  0xb8, 0xb1, 0x12, 0xbe, 0x70, 0x05, 0x2b, 0xbe, 0x2c, 0x51, 0xaf, 0xbe,
  0x9a, 0xf6, 0x18, 0xbf, 0x71, 0xb2, 0xdb, 0x3e, 0x05, 0xef, 0x2a, 0xbf,
  0x45, 0x9b, 0x05, 0x3e, 0xb8, 0xf8, 0x19, 0xbe, 0xf2, 0x9d, 0xac, 0x3d,
  0xcb, 0xcd, 0x35, 0x3e, 0x8b, 0x60, 0xa0, 0xbd, 0xd7, 0xc8, 0x20, 0xbf,
  0x89, 0xe7, 0xa6, 0xbe, 0x08, 0x5c, 0x03, 0xbf, 0x0d, 0x72, 0xb4, 0x3e,
  0xad, 0x61, 0x4c, 0xbe, 0xb3, 0x80, 0xc8, 0xbc, 0x6a, 0x1a, 0x87, 0xbc,
  0xa5, 0xc3, 0x73, 0xbe, 0xdf, 0x04, 0x84, 0xbf, 0x54, 0x2c, 0x9a, 0x3e,
  0x74, 0xec, 0x45, 0xbf, 0xd4, 0x5d, 0xc6, 0x3b, 0xac, 0x3b, 0xb0, 0xbe,
  0x9e, 0xe6, 0xa5, 0x3d, 0x9d, 0xdb, 0xd9, 0x3d, 0xc6, 0x40, 0x58, 0xbe,
  0x53, 0xdc, 0x99, 0x3e, 0xec, 0x72, 0x3d, 0x3e, 0x58, 0xfb, 0x48, 0xbd,
  0x59, 0xae, 0x8c, 0x3d, 0xfb, 0xe2, 0xb5, 0x3e, 0x76, 0x06, 0xd0, 0xbd,
  0xef, 0x0f, 0x9e, 0x3c, 0xea, 0xbd, 0x76, 0xbe, 0x0e, 0xd3, 0xd6, 0x3b,
  0xc8, 0x9d, 0x37, 0xbf, 0x89, 0x79, 0xf7, 0x3d, 0x7e, 0xda, 0xd2, 0xbd,
  0xff, 0x18, 0x10, 0x3f, 0x02, 0x3e, 0xb7, 0xbe, 0x00, 0xc8, 0x1e, 0xbe,
  0x92, 0xaa, 0x98, 0x3d, 0x9a, 0x27, 0xb3, 0x3e, 0x8f, 0xe0, 0x29, 0xbf,
  0xe3, 0x7d, 0xa3, 0x3e, 0x67, 0x7b, 0x1f, 0xbe, 0xc0, 0x48, 0xc2, 0x3e,
  0x17, 0xc0, 0xd5, 0xbd, 0x92, 0x43, 0xa7, 0x3c, 0x14, 0x8d, 0xf0, 0xbc,
  0x27, 0xfe, 0xc2, 0x3e, 0x8b, 0xb7, 0xe8, 0xbe, 0xc5, 0x7d, 0x5e, 0x3e,
  0x3b, 0x60, 0xe8, 0xbc, 0x76, 0x62, 0x7c, 0xbd, 0x2f, 0x59, 0x1c, 0x3d,
  0xbb, 0xf4, 0x17, 0xbd, 0x4f, 0x08, 0x62, 0x3e, 0x2a, 0x16, 0xce, 0x3e,
  0xfd, 0x7c, 0x89, 0xbe, 0x43, 0x70, 0x20, 0x3e, 0x9e, 0x46, 0x71, 0xbd,
  0x65, 0xa5, 0x92, 0x3d, 0x8f, 0xff, 0xce, 0x3c, 0xb4, 0xa3, 0xdc, 0xbe,
  0x68, 0x62, 0xe2, 0x3e, 0x22, 0xd9, 0xc7, 0x3e, 0x3b, 0x81, 0x94, 0xbe,
  0x5f, 0x60, 0x9d, 0x3e, 0x9b, 0x21, 0x60, 0xbe, 0x64, 0xa0, 0x57, 0xbc,
  0x77, 0x96, 0x35, 0xbe, 0x9a, 0x5d, 0x9d, 0xbe, 0x91, 0x1d, 0xe7, 0x3d,
  0x44, 0x64, 0xc6, 0x3d, 0xab, 0x74, 0xba, 0xbe, 0x62, 0x48, 0x47, 0x3e,
  0xe7, 0x9c, 0x85, 0xbe, 0xac, 0xbf, 0xa5, 0xbe, 0xc7, 0xf7, 0x00, 0xbf,
  0x28, 0xaa, 0xf3, 0xbd, 0x6b, 0xec, 0xf9, 0x3d, 0xdd, 0x5b, 0xd2, 0x3d,
  0x01, 0xc5, 0x99, 0xbe, 0x3b, 0xbe, 0x38, 0x3e, 0xc6, 0x99, 0xc1, 0xbe,
  0x3c, 0xe0, 0x3e, 0x3e, 0x2e, 0xce, 0x0d, 0xbf, 0x44, 0x2a, 0xcb, 0xbd,
  0xba, 0xa1, 0xdb, 0xbc, 0xa9, 0x29, 0xa8, 0xbd, 0x45, 0xc4, 0x45, 0xbe,
  0x5f, 0xa8, 0x74, 0x3e, 0xe0, 0x49, 0x8d, 0xbe, 0xe9, 0xfb, 0x07, 0x3f,
  0x3f, 0x1c, 0x9e, 0xbe, 0x58, 0x70, 0x13, 0x3e, 0xe9, 0x87, 0x06, 0x3f,
  0x88, 0x29, 0xa7, 0x3e, 0xb8, 0x91, 0x83, 0x3e, 0xaa, 0xe4, 0x61, 0x3d,
  0x55, 0x71, 0x5d, 0xbe, 0x70, 0x1b, 0x66, 0xbe, 0xd9, 0x15, 0x79, 0x3d,
  0x97, 0x81, 0x84, 0x3d, 0x69, 0x97, 0x9e, 0x3e, 0xa8, 0xfd, 0x89, 0x3e,
  0x13, 0xa8, 0xa6, 0x3e, 0x04, 0xf6, 0xe8, 0x3c, 0x79, 0x5f, 0xc0, 0xbe,
  0x69, 0x3e, 0xe9, 0x3c, 0x0b, 0x56, 0x94, 0xbe, 0xd1, 0x55, 0x48, 0x3e,
  0xb5, 0x31, 0x1d, 0x3f, 0x9b, 0x60, 0xb7, 0x3d, 0x14, 0x38, 0xa5, 0x3e,
  0xd0, 0x18, 0x87, 0x3d, 0x92, 0x4d, 0xa7, 0xbe, 0x89, 0x5c, 0x30, 0xbc,
  0xb1, 0xf4, 0xe8, 0xbe, 0x8e, 0x93, 0xd7, 0x3e, 0xb6, 0xf9, 0x88, 0x3e,
  0x35, 0xe0, 0x6c, 0x3d, 0x47, 0xa7, 0x91, 0x3e, 0xc8, 0x61, 0x4b, 0x3e,
  0x6c, 0x8d, 0xb2, 0xbe, 0xc0, 0xf5, 0xe9, 0x3c, 0x8c, 0x2e, 0x8f, 0xbe,
  0x13, 0x40, 0x79, 0x3d, 0x08, 0x8b, 0xa4, 0xbe, 0x40, 0xf9, 0x2c, 0x3d,
  0x34, 0xd6, 0x9d, 0x3d, 0xee, 0xe1, 0xd9, 0x3c, 0xe6, 0x75, 0x14, 0xbe,
  0x62, 0xf9, 0xee, 0xbb, 0xd5, 0x0e, 0x4f, 0xbf, 0x07, 0x35, 0x9f, 0x3e,
  0xbc, 0xbd, 0x5f, 0x3e, 0x5e, 0x7c, 0x6d, 0x3e, 0x0a, 0xb6, 0x00, 0x3e,
  0xa2, 0xe7, 0x21, 0xbe, 0x53, 0xf6, 0x88, 0xbe, 0x37, 0x4a, 0x81, 0x3e,
  0xa1, 0x2d, 0x68, 0xbf, 0x80, 0x20, 0x75, 0x3e, 0x7b, 0x46, 0x44, 0xbe,
  0x64, 0x15, 0xf4, 0xbc, 0x1a, 0x54, 0xbc, 0x3e, 0x7c, 0x40, 0x8d, 0xbd,
  0xc4, 0x47, 0xbb, 0xbe, 0x5b, 0xf5, 0x5b, 0x3d, 0x83, 0xbb, 0x18, 0xbf,
  0xf8, 0xb4, 0xc9, 0x3e, 0xd0, 0x2d, 0x84, 0xbe, 0xd5, 0x89, 0x6f, 0x3e,
  0xee, 0xb8, 0x9c, 0x3e, 0x41, 0xfc, 0xdd, 0xbc, 0xdb, 0x87, 0x29, 0xbe,
  0x03, 0x29, 0xaf, 0x3d, 0xcf, 0xe5, 0x2b, 0xbe, 0x91, 0xef, 0x53, 0x3e,
  0x1c, 0x1c, 0x7d, 0xbe, 0xa0, 0x4a, 0x6f, 0x3e, 0x89, 0xcb, 0xe3, 0xbd,
  0xb6, 0xc1, 0x6f, 0x3e, 0x94, 0x6b, 0xf0, 0x3d, 0xc1, 0x6d, 0x23, 0xbd,
  0xc5, 0x28, 0xf2, 0xbd, 0x5d, 0xf4, 0x6f, 0xbe, 0x08, 0x17, 0xa1, 0x3d,
  0x77, 0x35, 0xeb, 0x3d, 0xe1, 0xea, 0x96, 0xbe, 0x01, 0x67, 0xcf, 0x3e,
  0x55, 0x86, 0x9f, 0xbe, 0x74, 0xa0, 0xd1, 0x3d, 0x00, 0x3f, 0xb3, 0xbe,
  0x20, 0xed, 0xb9, 0xbe, 0xd9, 0xeb, 0x6a, 0xbe, 0xd5, 0x66, 0x9e, 0x3e,
  0xd3, 0x61, 0xbd, 0xbe, 0x15, 0x84, 0x81, 0x3e, 0xcc, 0xfd, 0xc2, 0xbe,
  0x0d, 0xa3, 0x0e, 0x3e, 0xf2, 0x5c, 0x80, 0xbe, 0x1c, 0x2a, 0xac, 0xbe,
  0x6f, 0xaa, 0x08, 0x3f, 0x15, 0x29, 0x6c, 0x3e, 0xa9, 0xe7, 0x90, 0xbe,
  0x68, 0x33, 0xe8, 0x3d, 0x11, 0xd0, 0x18, 0xbe, 0x02, 0xb6, 0x83, 0xbd,
  0xc0, 0x7c, 0x77, 0xbd, 0x19, 0xa5, 0xc3, 0x3d, 0x9b, 0x1f, 0x15, 0xbe,
  0xd9, 0xca, 0x48, 0xbe, 0xd0, 0xe9, 0xca, 0x3d, 0xd8, 0x1d, 0xc2, 0xbd,
  0x33, 0x6a, 0xe3, 0x3e, 0x29, 0x4c, 0xb2, 0xbc, 0x64, 0x16, 0xed, 0xbd,
  0xab, 0x11, 0xf3, 0x3c, 0x98, 0x0c, 0x4d, 0xbe, 0xe9, 0x2b, 0xeb, 0xbe,
  0xe6, 0x08, 0xf2, 0x3e, 0xc9, 0x0f, 0x81, 0xbe, 0x3a, 0xfa, 0x5d, 0x3e,
  0x74, 0xf6, 0x0e, 0xbe, 0xae, 0x0f, 0x00, 0xbe, 0x7f, 0x85, 0x15, 0x3c,
  0x13, 0xdf, 0x98, 0xbd, 0xba, 0x0e, 0x8f, 0xbe, 0xf0, 0xab, 0x3c, 0x3e,
  0x14, 0xf8, 0x06, 0xbe, 0xbd, 0x5e, 0x47, 0x3d, 0x31, 0x95, 0x4c, 0xbe,
  0x49, 0xfd, 0xa7, 0xbd, 0xaa, 0x40, 0x79, 0x3e, 0x29, 0x1a, 0x28, 0xbe,
  0x61, 0x24, 0xb1, 0xbd, 0xf3, 0x80, 0x8f, 0x3e, 0x62, 0x58, 0x84, 0xbe,
  0x6d, 0x93, 0xc7, 0x3d, 0x7e, 0x62, 0xd4, 0x3c, 0x39, 0xfc, 0x71, 0xbd,
  0x9f, 0x04, 0xe8, 0xbc, 0x34, 0xee, 0x2e, 0x3f, 0xd5, 0x6b, 0x01, 0x3e,
  0x69, 0x37, 0x2a, 0xbe, 0x05, 0xfe, 0xa4, 0x3d, 0x12, 0x67, 0x56, 0xbe,
  0xab, 0x11, 0x70, 0xbe, 0x51, 0x40, 0xc5, 0x3e, 0xc5, 0x8b, 0x68, 0x3e,
  0xf7, 0xac, 0x03, 0xbc, 0x88, 0x23, 0xf0, 0x3d, 0x0b, 0x77, 0x2e, 0xbe,
  0x96, 0x4c, 0x8f, 0x3e, 0x2c, 0xb8, 0x4f, 0xbe, 0x84, 0x68, 0xe5, 0x3e,
  0x70, 0x16, 0x64, 0x3e, 0x40, 0x77, 0x1d, 0x3e, 0xe1, 0x45, 0x4d, 0x3e,
  0xec, 0x72, 0x3b, 0x3e, 0xe2, 0x25, 0x65, 0xbe, 0x7b, 0xb4, 0x85, 0x3e,
  0xac, 0xd5, 0x8c, 0xbe, 0x60, 0x33, 0x9b, 0xbe, 0xb2, 0x62, 0x3e, 0x3e,
  0x76, 0x33, 0x92, 0x3c, 0x75, 0x5c, 0xe4, 0x3e, 0xf0, 0xa6, 0x95, 0x3e,
  0x44, 0xd5, 0x46, 0xbe, 0x2a, 0xf4, 0x93, 0xbd, 0x62, 0xe9, 0x89, 0xbd,
  0xe6, 0xb2, 0x24, 0xbe, 0x46, 0x32, 0xf5, 0x3e, 0x3f, 0xd3, 0xeb, 0x3c,
  0x90, 0xa9, 0x9f, 0xbe, 0xe7, 0x91, 0xf3, 0xbe, 0xda, 0x82, 0xb1, 0x3e,
  0x82, 0x04, 0xe3, 0xbe, 0x52, 0x36, 0x82, 0x3d, 0x7a, 0xfc, 0xd2, 0x3c,
  0xb4, 0xf6, 0x59, 0x3e, 0xda, 0x15, 0xac, 0x3d, 0xc1, 0xdf, 0x12, 0xbe,
  0xb4, 0x8b, 0x97, 0xbe, 0x6a, 0x84, 0xb1, 0x3e, 0xcc, 0xb2, 0xce, 0xbe,
  0xb8, 0x55, 0xcd, 0x3d, 0x4a, 0xc3, 0x00, 0xbe, 0xef, 0x1b, 0x7f, 0x3d,
  0x4d, 0x74, 0xa9, 0x3c, 0x0c, 0xe5, 0xab, 0xbe, 0x28, 0x30, 0x2b, 0xbf,
  0x17, 0xee, 0xc8, 0x3c, 0x57, 0xee, 0xf5, 0xbe, 0x29, 0x06, 0x8e, 0x3e,
  0x5c, 0x31, 0xef, 0xbd, 0xac, 0xe8, 0xb7, 0xbd, 0xa7, 0x6c, 0x72, 0x3e,
  0x80, 0x78, 0xce, 0xbe, 0x5a, 0x85, 0x0d, 0xbf, 0x79, 0x9a, 0xbf, 0x3e,
  0x25, 0x36, 0xbc, 0xbe, 0xc0, 0x2a, 0x5b, 0x3e, 0xb8, 0xdb, 0x87, 0x3c,
  0x54, 0x55, 0xfa, 0x3d, 0x24, 0x09, 0xe9, 0x3d, 0x5e, 0x11, 0x25, 0xbe,
  0x7b, 0x56, 0x09, 0xbf, 0x35, 0xc4, 0xd9, 0xbd, 0xe7, 0xf0, 0x25, 0xbf,
  0x62, 0x08, 0x02, 0x3e, 0x67, 0x7a, 0x4a, 0xbe, 0x06, 0xec, 0x52, 0x3e,
  0xf2, 0xb5, 0x68, 0x3d, 0xa5, 0x7b, 0x59, 0xbe, 0xda, 0xe5, 0xec, 0xbe,
  0x4f, 0x68, 0xd4, 0x3e, 0x98, 0x51, 0xeb, 0xbe, 0x60, 0x07, 0x92, 0xbe,
  0xfc, 0xb8, 0x83, 0xbe, 0x78, 0xa4, 0x46, 0xbd, 0x7a, 0xa6, 0xc9, 0x3d,
  0x0d, 0x68, 0x57, 0xbe, 0xff, 0x0d, 0x36, 0xbf, 0x2f, 0x68, 0x5c, 0xbd,
  0x59, 0xc1, 0x31, 0xbf, 0x4d, 0x06, 0x20, 0x3f, 0x4a, 0xca, 0x83, 0xbe,
  0xee, 0x9c, 0x10, 0x3e, 0x5e, 0xab, 0x8c, 0x3e, 0x31, 0x5a, 0xfb, 0xbd,
  0xa4, 0x67, 0xd6, 0xbd, 0x8c, 0x95, 0xb3, 0xbe, 0xf3, 0xc6, 0x2d, 0xbe,
  0x0b, 0xbb, 0xa9, 0x3e, 0x7a, 0x66, 0x47, 0x3c, 0xde, 0xd0, 0x58, 0xbd,
  0xaf, 0x52, 0x0b, 0x3e, 0x5e, 0x01, 0x5e, 0xbe, 0x25, 0x0e, 0x09, 0xbe,
  0x75, 0xf3, 0x7b, 0x3e, 0x43, 0xec, 0x45, 0xbe, 0xb5, 0x50, 0x11, 0x3e,
  0x42, 0xbf, 0x2f, 0xbd, 0x84, 0x5a, 0x11, 0xbe, 0xc9, 0x22, 0x01, 0xbe,
  0xb6, 0x9c, 0xad, 0xbe, 0x0b, 0x20, 0xeb, 0xbe, 0xd6, 0xc3, 0x76, 0x3e,
  0xbc, 0x10, 0xf1, 0xbe, 0x8b, 0x37, 0x00, 0x3f, 0x0f, 0xbb, 0xd6, 0xbd,
  0x1e, 0x21, 0x66, 0xbe, 0xee, 0x24, 0x66, 0x3e, 0x2f, 0x6d, 0xeb, 0xbe,
  0x0a, 0x4f, 0x1f, 0xbf, 0xbe, 0xef, 0xe4, 0x3d, 0xcc, 0x7e, 0x23, 0xbf,
  0xed, 0x12, 0x58, 0x3e, 0x71, 0x35, 0x30, 0xbd, 0x80, 0xb7, 0x94, 0xbc,
  0x77, 0x76, 0x99, 0x3d, 0x41, 0xc0, 0xc9, 0xbe, 0x52, 0xd8, 0xd7, 0xbd,
  0x26, 0xb3, 0x79, 0x3e, 0xae, 0x50, 0xb0, 0xbe, 0x11, 0xc8, 0xce, 0x3e,
  0x2c, 0x7c, 0xb4, 0x3d, 0xed, 0x68, 0x72, 0xbe, 0x92, 0xdb, 0x78, 0xbd,
  0x44, 0x78, 0x91, 0x3e, 0xdf, 0xcc, 0xd7, 0x3d, 0xf1, 0xf9, 0x79, 0xbe,
  0x09, 0x50, 0x99, 0x3e, 0x81, 0x13, 0x69, 0xbe, 0x05, 0x7c, 0x5d, 0x3e,
  0xe0, 0xce, 0x42, 0xbe, 0xeb, 0x75, 0x76, 0xbe, 0x28, 0x47, 0x5c, 0x3e,
  0x5b, 0xf8, 0x8a, 0x3e, 0x7d, 0x65, 0x7a, 0xbe, 0xdc, 0xcd, 0x4a, 0x3e,
  0x58, 0x27, 0x12, 0xbe, 0x3e, 0x35, 0x10, 0xbe, 0x85, 0x42, 0x68, 0xbe,
  0x9f, 0x40, 0xae, 0xbe, 0x09, 0xd7, 0x29, 0x3e, 0x13, 0xec, 0xdc, 0x3e,
  0x40, 0x77, 0x55, 0xbe, 0x36, 0xa1, 0x10, 0xbd, 0x0f, 0xa9, 0x91, 0xbc,
  0x80, 0x8c, 0x9f, 0xbd, 0x1b, 0xe9, 0x6a, 0xbe, 0x46, 0x7b, 0x49, 0xbe,
  0x70, 0x91, 0x14, 0x3f, 0xe8, 0xea, 0x86, 0x3e, 0xfc, 0x14, 0x34, 0xbe,
  0x1e, 0x59, 0x2d, 0x3e, 0xf7, 0x8e, 0x98, 0x3d, 0x25, 0x6f, 0xf5, 0xbd,
  0x45, 0x66, 0x36, 0x3e, 0x92, 0xf2, 0xff, 0xff, 0x10, 0x00, 0x00, 0x00,
  0x0a, 0x00, 0x00, 0x00, 0x1c, 0x00, 0x00, 0x00, 0x3c, 0x00, 0x00, 0x00,
  0x04, 0x00, 0x00, 0x00, 0x10, 0x00, 0x00, 0x00, 0x04, 0x00, 0x00, 0x00,
  0x01, 0x00, 0x00, 0x00, 0x08, 0x00, 0x00, 0x00, 0x1d, 0x00, 0x00, 0x00,
  0x63, 0x6f, 0x6e, 0x76, 0x6f, 0x6c, 0x75, 0x74, 0x69, 0x6f, 0x6e, 0x61,
  0x6c, 0x2f, 0x63, 0x6f, 0x6e, 0x76, 0x32, 0x64, 0x5f, 0x31, 0x2f, 0x43,
  0x6f, 0x6e, 0x76, 0x32, 0x44, 0x00, 0x00, 0x00, 0x08, 0xf2, 0xff, 0xff,
  0x16, 0xf3, 0xff, 0xff, 0x04, 0x00, 0x00, 0x00, 0x80, 0x01, 0x00, 0x00,
  0x60, 0xb0, 0xfd, 0xbd, 0x07, 0x04, 0x99, 0x3d, 0xe2, 0x5c, 0xf4, 0x3e,
  0xdd, 0x4c, 0x21, 0xbe, 0x1b, 0x52, 0x8c, 0x3e, 0xe5, 0xaf, 0x07, 0x3f,
  0xef, 0x30, 0xcb, 0xbd, 0x7f, 0x2d, 0xa3, 0x3e, 0x2d, 0x32, 0xf4, 0x3e,
  0x54, 0xf5, 0xfa, 0x3d, 0x02, 0xa2, 0x8c, 0x3e, 0x0a, 0x47, 0xcc, 0x3e,
  0x55, 0xfc, 0x5b, 0x3e, 0xd8, 0x8f, 0x14, 0xbe, 0x42, 0xf7, 0xa8, 0xbe,
  0x04, 0x9d, 0x93, 0xbe, 0x1d, 0x3c, 0x8b, 0xbe, 0xb6, 0xcb, 0xec, 0xb9,
  0x81, 0x0a, 0x0d, 0xbe, 0x91, 0x74, 0x87, 0xbe, 0xb2, 0xfc, 0x18, 0xbe,
  0x91, 0xd9, 0xf4, 0xbe, 0x48, 0xb2, 0x6f, 0xbe, 0x91, 0x24, 0xb3, 0x3e,
  0x64, 0xc4, 0xa1, 0x3a, 0x6b, 0x44, 0xe4, 0x3d, 0x4f, 0xe6, 0x18, 0xbf,
  0x79, 0x9d, 0xa4, 0x3d, 0x55, 0x81, 0x85, 0xbd, 0xc7, 0xe4, 0xc3, 0x3d,
  0xf5, 0x81, 0x80, 0xbd, 0xb3, 0x7e, 0xdd, 0x3d, 0x18, 0x92, 0xc0, 0xbd,
  0xf7, 0x97, 0x5d, 0x3d, 0xf9, 0xac, 0x06, 0xbe, 0x30, 0xb2, 0x08, 0x3f,
  0x10, 0x4b, 0xed, 0x3e, 0x06, 0x7a, 0xd3, 0xbe, 0x32, 0x14, 0x07, 0x3e,
  0x94, 0x07, 0x07, 0x3f, 0x88, 0xa1, 0xb3, 0x3d, 0x7f, 0x50, 0x2b, 0xbd,
  0x8f, 0x3e, 0x88, 0x3e, 0x7e, 0x97, 0x06, 0xbe, 0xcb, 0x1f, 0xd0, 0x3b,
  0xac, 0x46, 0xd6, 0x3e, 0x43, 0x86, 0x92, 0xbe, 0xd3, 0x42, 0x83, 0x3e,
  0x3f, 0xcd, 0xb4, 0xbe, 0x48, 0xc0, 0x04, 0xbf, 0xa8, 0x53, 0xaa, 0x3d,
  0xbf, 0x62, 0x4a, 0x3d, 0xe2, 0xf9, 0xd0, 0x3d, 0xb8, 0x58, 0x8f, 0xbd,
  0xa5, 0x8e, 0x90, 0xbd, 0x64, 0xb3, 0x87, 0xbd, 0x13, 0x77, 0x6b, 0x3d,
  0x69, 0x34, 0xad, 0x3e, 0x64, 0x16, 0xee, 0x3e, 0x52, 0xa3, 0x21, 0xbd,
  0xd2, 0x53, 0x41, 0x3d, 0x9c, 0xef, 0x0f, 0xbf, 0x6f, 0x6e, 0x6c, 0xbd,
  0xd6, 0xac, 0xf7, 0x3e, 0xfa, 0x7f, 0x69, 0x3e, 0x68, 0x15, 0x3d, 0xbe,
  0xd6, 0xc1, 0x3c, 0x3d, 0x26, 0xad, 0xb2, 0x3e, 0x47, 0x58, 0x27, 0xbd,
  0xbe, 0x89, 0xe7, 0xbd, 0x95, 0x7a, 0xaf, 0xbe, 0x4f, 0x03, 0x61, 0x3d,
  0x3a, 0x1d, 0x15, 0x3e, 0xed, 0x9e, 0xf3, 0x3e, 0x72, 0x07, 0x0d, 0x3f,
  0x27, 0x0e, 0xc2, 0x3e, 0x46, 0x15, 0x1d, 0xbd, 0x22, 0x57, 0xd5, 0xbd,
  0x0b, 0x5b, 0x61, 0x3e, 0x32, 0x32, 0x6b, 0x3e, 0x6a, 0x48, 0x1f, 0x3d,
  0xaf, 0x59, 0xa1, 0x3e, 0x20, 0xec, 0x7f, 0xbe, 0x30, 0xab, 0x0d, 0xbf,
  0x6b, 0x39, 0x82, 0x3e, 0x1a, 0x8b, 0xd3, 0x3d, 0x2a, 0xf2, 0x81, 0x3e,
  0x6a, 0xae, 0xd1, 0x3d, 0x28, 0xd5, 0x18, 0x3d, 0x8c, 0x03, 0x0d, 0xbf,
  0x96, 0xe9, 0xe8, 0xbe, 0x99, 0xf2, 0x87, 0x3d, 0xa2, 0x2b, 0xf9, 0xbe,
  0x53, 0xe7, 0x6e, 0xbd, 0x3d, 0x41, 0x0e, 0x3e, 0xbc, 0x3a, 0xc3, 0x3e,
  0x6e, 0xf4, 0xff, 0xff, 0x10, 0x00, 0x00, 0x00, 0x09, 0x00, 0x00, 0x00,
  0x1c, 0x00, 0x00, 0x00, 0x38, 0x00, 0x00, 0x00, 0x04, 0x00, 0x00, 0x00,
  0x08, 0x00, 0x00, 0x00, 0x04, 0x00, 0x00, 0x00, 0x03, 0x00, 0x00, 0x00,
  0x01, 0x00, 0x00, 0x00, 0x1b, 0x00, 0x00, 0x00, 0x63, 0x6f, 0x6e, 0x76,
  0x6f, 0x6c, 0x75, 0x74, 0x69, 0x6f, 0x6e, 0x61, 0x6c, 0x2f, 0x63, 0x6f,
  0x6e, 0x76, 0x32, 0x64, 0x2f, 0x43, 0x6f, 0x6e, 0x76, 0x32, 0x44, 0x00,
  0xe0, 0xf3, 0xff, 0xff, 0xee, 0xf4, 0xff, 0xff, 0x04, 0x00, 0x00, 0x00,
  0x40, 0x00, 0x00, 0x00, 0x1f, 0xdb, 0xa1, 0x3f, 0x55, 0x0c, 0x89, 0x3f,
  0xeb, 0xc1, 0x99, 0xbe, 0x9f, 0x58, 0x9c, 0x3f, 0x5b, 0xe4, 0x5f, 0x3f,
  0x86, 0xb2, 0x61, 0x3f, 0xf7, 0xc4, 0x5f, 0xbf, 0xf3, 0x6b, 0x67, 0xbf,
  0x57, 0x68, 0x8b, 0x3f, 0x4d, 0x4c, 0xa0, 0xbf, 0x61, 0x36, 0x49, 0xbf,
  0x3c, 0xae, 0x8c, 0x3f, 0xd6, 0x3a, 0x73, 0x3f, 0xc2, 0x01, 0x8b, 0x3f,
  0x60, 0xa3, 0x92, 0xbf, 0xfc, 0x2b, 0x73, 0x3f, 0x06, 0xf5, 0xff, 0xff,
  0x10, 0x00, 0x00, 0x00, 0x08, 0x00, 0x00, 0x00, 0x14, 0x00, 0x00, 0x00,
  0x38, 0x00, 0x00, 0x00, 0x02, 0x00, 0x00, 0x00, 0x01, 0x00, 0x00, 0x00,
  0x10, 0x00, 0x00, 0x00, 0x21, 0x00, 0x00, 0x00, 0x63, 0x6f, 0x6e, 0x76,
  0x6f, 0x6c, 0x75, 0x74, 0x69, 0x6f, 0x6e, 0x61, 0x6c, 0x2f, 0x6f, 0x75,
  0x74, 0x70, 0x75, 0x74, 0x5f, 0x6c, 0x61, 0x79, 0x65, 0x72, 0x2f, 0x4d,
  0x61, 0x74, 0x4d, 0x75, 0x6c, 0x00, 0x00, 0x00, 0x78, 0xf4, 0xff, 0xff,
  0x86, 0xf5, 0xff, 0xff, 0x04, 0x00, 0x00, 0x00, 0x00, 0x08, 0x00, 0x00,
  0x9d, 0x9c, 0x5c, 0x3f, 0x3c, 0x85, 0x84, 0x3e, 0x7a, 0x53, 0xd0, 0x3e,
  0x03, 0x2d, 0xf5, 0xbe, 0x2b, 0xf3, 0x53, 0x3d, 0xb3, 0x38, 0xae, 0x3e,
  0xda, 0x0c, 0x23, 0x3f, 0x6f, 0x7a, 0x12, 0x3f, 0xb2, 0xfe, 0x24, 0x3f,
  0x99, 0x96, 0x71, 0x3e, 0x15, 0x76, 0x9c, 0x3d, 0x66, 0xb9, 0xce, 0x3e,
  0x56, 0x2b, 0xdf, 0x3c, 0x2a, 0x3c, 0xa8, 0xbe, 0x0a, 0x28, 0xab, 0x3d,
  0x64, 0x6c, 0xb4, 0x3e, 0x91, 0xf4, 0x41, 0x3f, 0x89, 0x28, 0x4b, 0x3d,
  0x6b, 0x1a, 0x44, 0x3f, 0x13, 0x5e, 0xd2, 0xbe, 0x54, 0x7d, 0xb0, 0xbe,
  0xfd, 0x74, 0x92, 0x3d, 0x70, 0xb3, 0x19, 0x3f, 0x40, 0x49, 0xfa, 0x3e,
  0x26, 0x05, 0x3d, 0x3e, 0x3f, 0x62, 0x89, 0x3e, 0x73, 0x55, 0x5a, 0x3e,
  0xb6, 0x2b, 0x9f, 0x3d, 0x32, 0x41, 0xcc, 0xbd, 0x2d, 0x25, 0xaa, 0xbe,
  0x2b, 0x50, 0x3c, 0x3d, 0xc9, 0x8f, 0xb5, 0x3e, 0x7b, 0xd5, 0x12, 0x3f,
  0x49, 0xe8, 0x27, 0x3e, 0xc0, 0x57, 0x7d, 0x3e, 0xe7, 0xea, 0x42, 0xbf,
  0x65, 0x20, 0xc3, 0x3d, 0xd5, 0xef, 0x11, 0x3f, 0xd7, 0xcc, 0x4f, 0x3f,
  0x09, 0x6b, 0xb4, 0x3e, 0x01, 0xe2, 0xe5, 0x3e, 0x41, 0x77, 0xa7, 0x3e,
  0xca, 0x4f, 0x6e, 0x3c, 0xec, 0x9b, 0x0c, 0x3f, 0xd6, 0x74, 0x3e, 0xbe,
  0x6b, 0xa7, 0x6f, 0xbe, 0x78, 0x8c, 0x2a, 0x3e, 0x1e, 0xcd, 0x15, 0x3f,
  0x28, 0xb4, 0x48, 0x3f, 0xbf, 0x6d, 0x89, 0x3c, 0x09, 0x37, 0x67, 0x3f,
  0x5c, 0xb1, 0x03, 0xbf, 0x8a, 0xf3, 0x9e, 0xbe, 0x72, 0x73, 0x80, 0x3c,
  0xca, 0x21, 0xfe, 0x3e, 0x22, 0xbb, 0xac, 0x3e, 0x2a, 0x07, 0xa2, 0x3e,
  0x65, 0xba, 0x14, 0x3f, 0x82, 0x8b, 0xc5, 0x3d, 0x6d, 0x27, 0x2b, 0x3f,
  0x76, 0x40, 0x03, 0x3d, 0xda, 0xc1, 0x84, 0xbc, 0xba, 0x8a, 0x41, 0x3d,
  0x56, 0x72, 0x87, 0x3e, 0xc7, 0xe5, 0x4f, 0x3d, 0x24, 0xbb, 0x5e, 0x3e,
  0x82, 0xde, 0x37, 0x3e, 0xe9, 0xba, 0x9d, 0x3e, 0xed, 0xff, 0x59, 0xbe,
  0xab, 0x7c, 0x8d, 0xbe, 0x9a, 0xa9, 0x7d, 0x3e, 0xd8, 0x15, 0xab, 0xbe,
  0x94, 0x4e, 0x2f, 0xbe, 0x7e, 0x82, 0x5b, 0x3e, 0xee, 0x76, 0x39, 0xbe,
  0x3d, 0x90, 0x9a, 0x3d, 0x0f, 0xc0, 0x86, 0xbe, 0xb0, 0x3f, 0xa0, 0x3d,
  0x88, 0x61, 0xa8, 0xbe, 0x39, 0x67, 0x15, 0x3e, 0x46, 0x11, 0x57, 0x3d,
  0xdb, 0x66, 0x98, 0xbe, 0x5c, 0x6c, 0xf8, 0x3d, 0x24, 0xcd, 0x94, 0x3e,
  0xe9, 0x9d, 0x67, 0xbb, 0x1c, 0x48, 0x41, 0xbe, 0x6b, 0x7e, 0x58, 0x3e,
  0xee, 0x43, 0x8f, 0x3e, 0x07, 0xdf, 0xa3, 0xbe, 0x5d, 0xed, 0x6a, 0x3e,
  0x5b, 0x02, 0x1a, 0xbe, 0xdb, 0x12, 0xcc, 0xbd, 0x8d, 0xd6, 0x84, 0xbd,
  0x9d, 0xc8, 0x91, 0x3c, 0xba, 0x15, 0x82, 0xbe, 0x28, 0x21, 0x48, 0xbe,
  0x63, 0x81, 0x72, 0x3f, 0xc0, 0xf7, 0x27, 0x3e, 0x77, 0xd0, 0x55, 0x3e,
  0x7d, 0x8b, 0x8d, 0xbe, 0x6d, 0xe5, 0x04, 0x3e, 0x32, 0xd5, 0x1b, 0x3d,
  0xdc, 0x2c, 0xe0, 0x3e, 0x58, 0x88, 0xad, 0x3e, 0x62, 0x13, 0x14, 0x3f,
  0xb0, 0x51, 0x0f, 0x3f, 0xc7, 0x55, 0x9b, 0x3d, 0x9c, 0x7d, 0x40, 0x3f,
  0xee, 0xb2, 0x56, 0xbd, 0xec, 0x05, 0xfc, 0xbd, 0xfd, 0xdf, 0x32, 0x3e,
  0x7e, 0x3a, 0x22, 0x3e, 0x1f, 0x1e, 0x32, 0x3f, 0xf6, 0x70, 0x2e, 0x3f,
  0x73, 0xcb, 0x18, 0x3f, 0xe8, 0x34, 0xd6, 0xbd, 0x9b, 0x99, 0x03, 0xbf,
  0x5d, 0x2b, 0xb2, 0x3e, 0xd7, 0xc3, 0x23, 0x3e, 0xdf, 0xe0, 0xf8, 0x3e,
  0xa0, 0x39, 0x4c, 0x3f, 0x6c, 0x84, 0xe1, 0x3e, 0xf3, 0x86, 0x10, 0x3e,
  0x28, 0x57, 0x2f, 0x3f, 0xf3, 0x54, 0xab, 0xbe, 0x36, 0x9e, 0xba, 0xbe,
  0x5b, 0xd4, 0x62, 0xbd, 0xcd, 0xff, 0xd2, 0x3d, 0xdb, 0x6d, 0x29, 0x3f,
  0x99, 0x63, 0x24, 0x3f, 0x48, 0x11, 0xa5, 0x3e, 0x9d, 0xf0, 0xac, 0xbe,
  0x2e, 0x1b, 0xac, 0x3b, 0x68, 0x1c, 0x3f, 0x3f, 0xed, 0xb2, 0x4e, 0x3f,
  0xb6, 0xf8, 0x4f, 0x3f, 0x49, 0x26, 0x06, 0x3e, 0xaa, 0x17, 0x3d, 0x3f,
  0x46, 0x0b, 0x12, 0x3e, 0x36, 0x42, 0x5a, 0x3e, 0x44, 0x5f, 0x56, 0xbe,
  0xe6, 0xab, 0x68, 0xbe, 0x32, 0x12, 0x4f, 0xbb, 0x1e, 0x99, 0xdd, 0xbc,
  0x4b, 0x01, 0x6a, 0x3f, 0x48, 0x2f, 0x05, 0x3f, 0x4a, 0x65, 0x21, 0x3f,
  0xcb, 0xd2, 0x98, 0xbe, 0x84, 0x99, 0xec, 0xbe, 0x48, 0x5d, 0xac, 0x3e,
  0x0b, 0x99, 0x21, 0x3f, 0x2d, 0xfc, 0x45, 0x3f, 0x41, 0xbf, 0x3c, 0x3e,
  0x04, 0x36, 0x19, 0x3f, 0x4f, 0xba, 0x38, 0x3e, 0x3a, 0x81, 0x41, 0x3e,
  0x90, 0x06, 0xbc, 0xbe, 0xd8, 0x60, 0x2c, 0xbe, 0xb4, 0x97, 0xfe, 0xbd,
  0x2b, 0x67, 0x8b, 0xbc, 0xbc, 0x9e, 0x46, 0x3f, 0xc6, 0xd8, 0xb7, 0x3e,
  0x37, 0xdc, 0x3c, 0x3f, 0xa7, 0xea, 0x3d, 0xbf, 0xb8, 0x78, 0x0f, 0xbe,
  0xc4, 0xf7, 0x7d, 0x3e, 0xcb, 0xf6, 0x44, 0x3f, 0x03, 0x80, 0x20, 0x3f,
  0x4a, 0x9b, 0x22, 0x3f, 0x78, 0x84, 0x2f, 0x3f, 0x09, 0x99, 0x8e, 0x3e,
  0xf6, 0xa9, 0xed, 0x3e, 0xce, 0xf6, 0xc9, 0x3c, 0xae, 0x14, 0xac, 0xbe,
  0x0e, 0x9b, 0xce, 0xbc, 0x8e, 0x8c, 0x1e, 0x3e, 0x88, 0xd9, 0xee, 0x3e,
  0x8b, 0x87, 0x0d, 0x3e, 0xff, 0xc9, 0xf3, 0x3e, 0x47, 0x92, 0xad, 0xbd,
  0xbd, 0x72, 0xbd, 0xbe, 0x56, 0x87, 0xf9, 0x3e, 0x39, 0x66, 0xea, 0x3e,
  0x14, 0x67, 0x16, 0x3f, 0xe9, 0xcf, 0xd7, 0x3e, 0xae, 0x47, 0xa0, 0x3e,
  0xc0, 0x3e, 0xdd, 0x3d, 0xf4, 0x00, 0x34, 0x3f, 0x47, 0x40, 0x80, 0xbe,
  0xc3, 0x0c, 0x94, 0xbe, 0x2e, 0xdd, 0xad, 0x3d, 0x71, 0x55, 0x69, 0x3e,
  0x42, 0x0b, 0x3b, 0xbf, 0xe5, 0xba, 0x43, 0xbf, 0x7c, 0x86, 0x6b, 0xbf,
  0x3f, 0xa0, 0x12, 0x3f, 0x24, 0xa5, 0x34, 0x3f, 0xd9, 0x68, 0x2f, 0xbf,
  0x0f, 0x74, 0xe3, 0xbe, 0xfb, 0xb4, 0x1b, 0xbf, 0x77, 0x31, 0x46, 0xbf,
  0x44, 0x15, 0x5b, 0xbf, 0xa5, 0x09, 0xcd, 0x3e, 0x40, 0x57, 0xee, 0xbe,
  0xaf, 0x7a, 0x1c, 0x3f, 0x61, 0xfe, 0xd2, 0x3e, 0x81, 0xe1, 0x08, 0x3f,
  0xfd, 0x31, 0x19, 0xbf, 0x61, 0x88, 0x94, 0xbf, 0x0c, 0xaf, 0x9c, 0xbe,
  0xa3, 0xa4, 0x6a, 0xbf, 0xf8, 0x9b, 0x24, 0x3e, 0x88, 0x66, 0x4f, 0x3f,
  0x8f, 0xb5, 0x98, 0xbe, 0x42, 0x38, 0x32, 0xbf, 0x18, 0x53, 0x51, 0xbf,
  0xee, 0x1f, 0x6e, 0xbf, 0xa5, 0x21, 0x39, 0xbe, 0xd8, 0xd8, 0xfc, 0x3e,
  0x13, 0x7c, 0x54, 0xbf, 0x1d, 0xbb, 0x5f, 0x3d, 0x65, 0x84, 0xe9, 0x3e,
  0xfa, 0x93, 0x15, 0x3b, 0x9f, 0xb9, 0x8a, 0xbe, 0x0e, 0x18, 0x9e, 0xbf,
  0x37, 0xc3, 0xdc, 0xbe, 0x00, 0xae, 0x4b, 0xbf, 0x0c, 0xd7, 0xf8, 0x3e,
  0xa3, 0xbb, 0xb9, 0x3e, 0x0c, 0x33, 0xab, 0xbe, 0x9e, 0xbf, 0x13, 0xbf,
  0x39, 0x0a, 0x6d, 0xbf, 0xe6, 0x34, 0x73, 0xbf, 0xb5, 0x32, 0xb0, 0xbe,
  0x20, 0x3b, 0x83, 0x3e, 0xee, 0x54, 0x03, 0xbf, 0x29, 0x66, 0x3c, 0x3f,
  0xfa, 0x72, 0x00, 0x3f, 0xd7, 0xa8, 0xa9, 0x3e, 0x1c, 0xfb, 0x0f, 0xbf,
  0x48, 0xa5, 0x62, 0xbf, 0xa8, 0x09, 0x49, 0xbf, 0x4c, 0x25, 0x90, 0xbf,
  0xd3, 0x87, 0x47, 0x3f, 0xb6, 0x15, 0xb4, 0x3e, 0xd8, 0x43, 0x05, 0xbf,
  0x74, 0xa0, 0x3e, 0xbf, 0x98, 0x83, 0x52, 0xbf, 0xf7, 0x95, 0x70, 0xbf,
  0x3a, 0x50, 0x81, 0xbd, 0x1e, 0x33, 0x16, 0x3f, 0xd7, 0xaf, 0x46, 0xbf,
  0x96, 0x8d, 0xb9, 0x3e, 0xa8, 0xbf, 0x8e, 0x3e, 0xf6, 0x83, 0x35, 0x3e,
  0x85, 0xf8, 0x9e, 0xbd, 0xa8, 0xf9, 0x23, 0x3f, 0x8d, 0x6a, 0x9a, 0x3e,
  0x49, 0xda, 0x4d, 0x3f, 0x19, 0x2e, 0x20, 0xbf, 0x08, 0xae, 0x86, 0x3d,
  0x35, 0xb7, 0x60, 0x3e, 0x5d, 0xb1, 0x3e, 0x3f, 0x1f, 0xef, 0x4d, 0x3f,
  0x7a, 0xeb, 0x31, 0x3f, 0x0e, 0x20, 0x39, 0x3f, 0x43, 0xce, 0xb0, 0x3d,
  0xd7, 0xe9, 0xec, 0x3e, 0x97, 0x66, 0xf5, 0xbc, 0x81, 0x46, 0xd2, 0xbd,
  0xa7, 0xf0, 0x12, 0x3e, 0xd4, 0x66, 0x3a, 0x3e, 0xfe, 0x99, 0x81, 0x3f,
  0xf6, 0xfb, 0xa4, 0x3e, 0x3f, 0x98, 0x3b, 0x3f, 0xb4, 0xdf, 0xe7, 0xbe,
  0xc4, 0x5a, 0xd5, 0xbd, 0xe1, 0x2d, 0x02, 0x3f, 0x6d, 0x35, 0xf4, 0x3d,
  0x44, 0x35, 0xf9, 0x3e, 0x0f, 0xe3, 0x49, 0x3f, 0x18, 0x78, 0xd8, 0x3e,
  0xfd, 0x35, 0x7f, 0x3c, 0xfa, 0xc5, 0x48, 0x3e, 0x2b, 0x52, 0x62, 0xbd,
  0x5b, 0x40, 0xcc, 0xbe, 0xa8, 0xdb, 0x87, 0xbd, 0xe8, 0xa3, 0xcd, 0x3e,
  0x67, 0x55, 0x17, 0xbf, 0x52, 0x96, 0xee, 0xbe, 0x56, 0x48, 0x12, 0xbf,
  0x51, 0xd5, 0x71, 0x3f, 0x07, 0x43, 0x82, 0x3e, 0x29, 0xa8, 0x4d, 0xbe,
  0xf0, 0x2c, 0x35, 0xbf, 0x4f, 0x8a, 0x6d, 0xbe, 0x82, 0x93, 0x31, 0xbd,
  0x7e, 0xb2, 0xeb, 0xbe, 0x81, 0x77, 0xc4, 0x3d, 0x7b, 0xd5, 0x28, 0xbf,
  0x7c, 0x07, 0x06, 0x3e, 0xdd, 0x96, 0x02, 0x3f, 0x3f, 0xd6, 0x6e, 0x3e,
  0x69, 0x83, 0x0b, 0x3e, 0xa9, 0x58, 0x7f, 0xbf, 0x3e, 0x71, 0x1f, 0xbf,
  0xfd, 0x4f, 0x62, 0xbf, 0xc2, 0xd4, 0x55, 0x3f, 0x0a, 0x35, 0x2a, 0x3f,
  0xac, 0xf2, 0xaf, 0xbe, 0x2f, 0x22, 0x14, 0xbf, 0xa8, 0x52, 0x92, 0xbe,
  0xcf, 0x25, 0x8b, 0xbe, 0x93, 0x20, 0x53, 0xbd, 0xc5, 0xea, 0x13, 0x3e,
  0xc2, 0x00, 0x8d, 0xbe, 0x4c, 0x8a, 0x5e, 0x3e, 0x56, 0x5c, 0x85, 0x3f,
  0xb2, 0x03, 0x00, 0x3f, 0xed, 0xe4, 0x33, 0xbe, 0x10, 0x4e, 0x72, 0xbf,
  0x9f, 0x7f, 0x40, 0xbf, 0x35, 0x37, 0x39, 0xbf, 0xd4, 0x2f, 0x41, 0x3f,
  0x13, 0xf4, 0x09, 0x3f, 0x5d, 0xab, 0x5b, 0xbf, 0xa6, 0x2e, 0x24, 0xbf,
  0x7a, 0xbf, 0x0d, 0xbf, 0x40, 0x41, 0x8e, 0xbe, 0x4a, 0x91, 0x06, 0xbf,
  0xbb, 0x9c, 0xcb, 0x3e, 0x46, 0xcb, 0x46, 0xbf, 0xa4, 0x44, 0xf6, 0x3e,
  0x25, 0x33, 0x20, 0x3f, 0x5d, 0x59, 0xaf, 0x3e, 0xb5, 0x56, 0x85, 0xbe,
  0x73, 0x14, 0x48, 0xbf, 0x11, 0xbc, 0x17, 0xbf, 0x74, 0xc5, 0x03, 0xbf,
  0xcd, 0xfa, 0x01, 0x3f, 0x01, 0xcc, 0xfa, 0x3e, 0x74, 0x81, 0x01, 0xbf,
  0x05, 0x16, 0x1b, 0xbf, 0xfd, 0xdc, 0x23, 0xbf, 0xb7, 0x9f, 0x6f, 0xbf,
  0x7d, 0xef, 0x2e, 0xbe, 0x51, 0xfd, 0x8f, 0x3d, 0xce, 0x64, 0x96, 0xbd,
  0x96, 0xdf, 0x1a, 0x3f, 0x4b, 0x4e, 0x27, 0x3f, 0xf7, 0x51, 0x30, 0x3f,
  0xdd, 0x0e, 0x43, 0x3d, 0x0d, 0x7c, 0x69, 0x3f, 0xbc, 0xc3, 0xe7, 0x3e,
  0x8f, 0x96, 0x01, 0x3f, 0xc3, 0xa6, 0x09, 0xbe, 0x4d, 0x33, 0x34, 0xbe,
  0x0c, 0xfc, 0xce, 0x3e, 0xdf, 0xfe, 0x26, 0x3f, 0x9f, 0xef, 0xc1, 0x3e,
  0xb5, 0x8b, 0x10, 0x3e, 0x22, 0xc5, 0x09, 0x3e, 0x85, 0x23, 0x2f, 0x3e,
  0xdc, 0x0d, 0x2c, 0x3f, 0xf0, 0x34, 0x40, 0xbe, 0x19, 0xd0, 0x7d, 0xbe,
  0x45, 0xf2, 0xb0, 0x3d, 0x46, 0xd9, 0x24, 0x3e, 0x0f, 0x09, 0xe3, 0x3e,
  0x13, 0xa7, 0x2c, 0x3f, 0x40, 0xc2, 0x4f, 0x3f, 0x9c, 0xc1, 0xf6, 0xbe,
  0xea, 0xff, 0x20, 0xbe, 0x48, 0xb6, 0x35, 0x3e, 0x42, 0xec, 0x29, 0x3e,
  0xf9, 0xa6, 0xaa, 0x3e, 0x0f, 0x83, 0x4a, 0x3f, 0xc7, 0x95, 0x60, 0x3e,
  0x5d, 0xb5, 0x89, 0x3d, 0xb1, 0x24, 0xc6, 0x3e, 0xe5, 0xa0, 0x40, 0xbe,
  0xa0, 0xac, 0x8f, 0xbe, 0x0a, 0xdc, 0xb0, 0x3d, 0x4b, 0xc3, 0xc3, 0x3e,
  0x9d, 0x95, 0x50, 0x3f, 0xf6, 0x16, 0x32, 0x3f, 0x1d, 0x90, 0xb8, 0x3e,
  0xa7, 0x6e, 0x39, 0xbe, 0x6f, 0x39, 0xff, 0x3d, 0x69, 0x22, 0xfa, 0x3e,
  0x4f, 0x19, 0x34, 0x3f, 0xbc, 0x99, 0xaa, 0x3e, 0xbe, 0x70, 0xdd, 0x3d,
  0x77, 0x8f, 0x9c, 0x3e, 0x6b, 0x66, 0xf0, 0x3d, 0xa6, 0xb6, 0x26, 0x3f,
  0xaf, 0x49, 0x2f, 0xbe, 0x22, 0x0c, 0x9a, 0xbb, 0x66, 0x85, 0x0b, 0x3e,
  0x09, 0x73, 0xcb, 0x3c, 0xe0, 0xc5, 0x93, 0x3f, 0x16, 0xd3, 0xc5, 0x3e,
  0x20, 0xab, 0x4d, 0x3f, 0xd5, 0x46, 0x85, 0xbe, 0x5c, 0xba, 0xcd, 0xbe,
  0xd5, 0x89, 0xa7, 0x3e, 0x32, 0x57, 0x04, 0x3f, 0x8e, 0x1a, 0x23, 0x3f,
  0xc7, 0xed, 0x34, 0x3f, 0x17, 0xb4, 0xab, 0x3e, 0x5f, 0x3a, 0x74, 0x3d,
  0xc2, 0xeb, 0xfa, 0x3e, 0x13, 0x08, 0x27, 0x3e, 0xc0, 0xd6, 0xe4, 0xbe,
  0x93, 0x4b, 0x11, 0xbd, 0x3c, 0xb1, 0x13, 0x3f, 0x35, 0x28, 0x30, 0x3f,
  0xcf, 0x0c, 0x13, 0x3f, 0xf7, 0x95, 0x16, 0x3f, 0xb0, 0x83, 0xb3, 0xbe,
  0x09, 0xbe, 0xd7, 0xbc, 0xac, 0x90, 0xdb, 0x3e, 0x6a, 0x0e, 0xf2, 0x3e,
  0x39, 0xff, 0xe7, 0x3d, 0x02, 0x52, 0x0d, 0x3f, 0xb8, 0x11, 0x10, 0x3f,
  0x6d, 0xb2, 0xcf, 0x3d, 0x50, 0x35, 0x20, 0x3f, 0xb2, 0x0f, 0x6f, 0xbe,
  0xd1, 0x4c, 0x15, 0xbe, 0x31, 0x23, 0x01, 0x3e, 0x92, 0xd8, 0x01, 0x3f,
  0xb7, 0xac, 0x6e, 0x3f, 0x50, 0xea, 0x99, 0x3e, 0x85, 0x02, 0x3a, 0x3f,
  0x4d, 0x5f, 0xc6, 0xbe, 0x3e, 0x91, 0x87, 0xbe, 0x9f, 0x45, 0xf1, 0x3d,
  0xdc, 0xa2, 0x15, 0x3f, 0xba, 0x6f, 0x06, 0x3f, 0x7c, 0xc5, 0x63, 0x3e,
  0xa6, 0x38, 0xcf, 0x3d, 0x1f, 0x1e, 0x2b, 0x3d, 0x20, 0xcb, 0x00, 0x3f,
  0xfe, 0x4b, 0xa1, 0xbe, 0x3a, 0x02, 0xc3, 0xbe, 0xc3, 0x37, 0x85, 0x3e,
  0x4d, 0x82, 0x85, 0x3e, 0xc1, 0xe8, 0x19, 0xbf, 0xc7, 0x9d, 0x04, 0xbf,
  0xba, 0x44, 0xde, 0xbe, 0x00, 0x58, 0x71, 0x3e, 0x07, 0x60, 0xd3, 0x3d,
  0x9b, 0x62, 0x12, 0xbf, 0x9d, 0xdf, 0x24, 0xbf, 0xdf, 0xba, 0x5b, 0xbf,
  0x22, 0xfe, 0x6d, 0xbf, 0x21, 0xa4, 0xff, 0xbe, 0xea, 0x5a, 0x87, 0x3e,
  0x32, 0x4a, 0xfe, 0xbe, 0x3f, 0xd6, 0x5e, 0x3e, 0xf4, 0x8f, 0xe8, 0x3e,
  0xf7, 0x9b, 0xe0, 0x3e, 0x40, 0x28, 0x04, 0xbf, 0x09, 0x85, 0x3b, 0xbf,
  0x8f, 0x85, 0x3c, 0xbf, 0xd9, 0xb0, 0xfd, 0xbe, 0x9d, 0x29, 0x11, 0x3f,
  0x04, 0x51, 0x33, 0x3f, 0xf4, 0x37, 0xfb, 0xbd, 0xcf, 0x9f, 0x31, 0xbf,
  0xac, 0xd4, 0x49, 0xbf, 0xbb, 0x3d, 0x73, 0xbf, 0x46, 0xb1, 0xcd, 0x3d,
  0x48, 0xc2, 0x5d, 0x3e, 0xc8, 0xaa, 0x96, 0xbe, 0xeb, 0xd2, 0x06, 0x3e,
  0xf9, 0x45, 0x18, 0x3f, 0x0f, 0xfc, 0x9d, 0x3e, 0x10, 0xe5, 0x1f, 0xbf,
  0xb3, 0xe8, 0x5c, 0x3f, 0xcd, 0xcf, 0xaf, 0x3d, 0xcb, 0x44, 0x6a, 0x3f,
  0x86, 0x5d, 0x2a, 0xbf, 0x94, 0xc1, 0xb0, 0x3d, 0xe5, 0xff, 0xf2, 0x3e,
  0x8f, 0xd1, 0xf5, 0x3e, 0x30, 0xdf, 0x94, 0x3e, 0xc0, 0x4c, 0xf4, 0x3e,
  0x40, 0x1e, 0x49, 0x3f, 0xfa, 0x55, 0xb4, 0xbd, 0xb1, 0x33, 0x61, 0x3f,
  0xde, 0xa4, 0x51, 0xbe, 0xe4, 0x34, 0xc8, 0xbe, 0xb9, 0xf1, 0x45, 0x3e,
  0x59, 0x4f, 0x1b, 0x3e, 0xb8, 0x25, 0x91, 0x3f, 0x00, 0xe4, 0x27, 0xbe,
  0x9f, 0xae, 0x1b, 0x3f, 0x27, 0xcf, 0xf7, 0xbe, 0x7b, 0x00, 0x9b, 0xbd,
  0x14, 0x81, 0x27, 0xbe, 0xa8, 0x1b, 0xb0, 0x3e, 0x22, 0x0f, 0xbb, 0x3e,
  0x6f, 0xc1, 0x1d, 0x3e, 0x03, 0xcd, 0x09, 0x3f, 0x69, 0xde, 0xfe, 0xbc,
  0x91, 0x19, 0x4c, 0x3f, 0x88, 0xce, 0x8e, 0xbe, 0x5f, 0x39, 0x82, 0xbe,
  0x9f, 0x85, 0x03, 0xbd, 0x90, 0xcf, 0xf5, 0x3e, 0x5e, 0xfd, 0xff, 0xff,
  0x10, 0x00, 0x00, 0x00, 0x07, 0x00, 0x00, 0x00, 0x14, 0x00, 0x00, 0x00,
  0x30, 0x00, 0x00, 0x00, 0x02, 0x00, 0x00, 0x00, 0x10, 0x00, 0x00, 0x00,
  0x20, 0x00, 0x00, 0x00, 0x1a, 0x00, 0x00, 0x00, 0x63, 0x6f, 0x6e, 0x76,
  0x6f, 0x6c, 0x75, 0x74, 0x69, 0x6f, 0x6e, 0x61, 0x6c, 0x2f, 0x64, 0x65,
  0x6e, 0x73, 0x65, 0x2f, 0x4d, 0x61, 0x74, 0x4d, 0x75, 0x6c, 0x00, 0x00,
  0xc8, 0xfc, 0xff, 0xff, 0xd6, 0xfd, 0xff, 0xff, 0x04, 0x00, 0x00, 0x00,
  0x04, 0x00, 0x00, 0x00, 0xdf, 0xa4, 0xba, 0xbe, 0xb2, 0xfd, 0xff, 0xff,
  0x10, 0x00, 0x00, 0x00, 0x06, 0x00, 0x00, 0x00, 0x10, 0x00, 0x00, 0x00,
  0x4c, 0x00, 0x00, 0x00, 0x01, 0x00, 0x00, 0x00, 0x01, 0x00, 0x00, 0x00,
  0x3a, 0x00, 0x00, 0x00, 0x63, 0x6f, 0x6e, 0x76, 0x6f, 0x6c, 0x75, 0x74,
  0x69, 0x6f, 0x6e, 0x61, 0x6c, 0x2f, 0x6f, 0x75, 0x74, 0x70, 0x75, 0x74,
  0x5f, 0x6c, 0x61, 0x79, 0x65, 0x72, 0x2f, 0x42, 0x69, 0x61, 0x73, 0x41,
  0x64, 0x64, 0x2f, 0x52, 0x65, 0x61, 0x64, 0x56, 0x61, 0x72, 0x69, 0x61,
  0x62, 0x6c, 0x65, 0x4f, 0x70, 0x2f, 0x72, 0x65, 0x73, 0x6f, 0x75, 0x72,
  0x63, 0x65, 0x00, 0x00, 0x38, 0xfd, 0xff, 0xff, 0x46, 0xfe, 0xff, 0xff,
  0x04, 0x00, 0x00, 0x00, 0x08, 0x00, 0x00, 0x00, 0xff, 0xff, 0xff, 0xff,
  0x20, 0x00, 0x00, 0x00, 0x00, 0x00, 0x0e, 0x00, 0x18, 0x00, 0x08, 0x00,
  0x07, 0x00, 0x0c, 0x00, 0x10, 0x00, 0x14, 0x00, 0x0e, 0x00, 0x00, 0x00,
  0x00, 0x00, 0x00, 0x02, 0x10, 0x00, 0x00, 0x00, 0x05, 0x00, 0x00, 0x00,
  0x10, 0x00, 0x00, 0x00, 0x2c, 0x00, 0x00, 0x00, 0x01, 0x00, 0x00, 0x00,
  0x02, 0x00, 0x00, 0x00, 0x1b, 0x00, 0x00, 0x00, 0x63, 0x6f, 0x6e, 0x76,
  0x6f, 0x6c, 0x75, 0x74, 0x69, 0x6f, 0x6e, 0x61, 0x6c, 0x2f, 0x66, 0x6c,
  0x61, 0x74, 0x74, 0x65, 0x6e, 0x2f, 0x43, 0x6f, 0x6e, 0x73, 0x74, 0x00,
  0xa0, 0xfd, 0xff, 0xff, 0xae, 0xfe, 0xff, 0xff, 0x04, 0x00, 0x00, 0x00,
  0x40, 0x00, 0x00, 0x00, 0x08, 0x5b, 0x99, 0xbd, 0x58, 0xd5, 0xa8, 0xbd,
  0x03, 0x2e, 0x33, 0xbd, 0x53, 0x0c, 0x36, 0xbd, 0x7b, 0x95, 0x71, 0x3a,
  0xcd, 0xe1, 0x85, 0xbd, 0x00, 0x3b, 0xc3, 0x3e, 0x5e, 0x88, 0xbc, 0x3e,
  0x79, 0x64, 0x7d, 0xbd, 0x48, 0xbe, 0x6d, 0x3e, 0x0e, 0xc0, 0x9b, 0x3e,
  0x10, 0x95, 0x20, 0xbd, 0x19, 0xeb, 0xae, 0xbd, 0xe9, 0x05, 0x89, 0xbd,
  0x20, 0x49, 0x7f, 0x3e, 0x61, 0xa6, 0x16, 0x3d, 0xc6, 0xfe, 0xff, 0xff,
  0x10, 0x00, 0x00, 0x00, 0x04, 0x00, 0x00, 0x00, 0x10, 0x00, 0x00, 0x00,
  0x44, 0x00, 0x00, 0x00, 0x01, 0x00, 0x00, 0x00, 0x10, 0x00, 0x00, 0x00,
  0x33, 0x00, 0x00, 0x00, 0x63, 0x6f, 0x6e, 0x76, 0x6f, 0x6c, 0x75, 0x74,
  0x69, 0x6f, 0x6e, 0x61, 0x6c, 0x2f, 0x64, 0x65, 0x6e, 0x73, 0x65, 0x2f,
  0x42, 0x69, 0x61, 0x73, 0x41, 0x64, 0x64, 0x2f, 0x52, 0x65, 0x61, 0x64,
  0x56, 0x61, 0x72, 0x69, 0x61, 0x62, 0x6c, 0x65, 0x4f, 0x70, 0x2f, 0x72,
  0x65, 0x73, 0x6f, 0x75, 0x72, 0x63, 0x65, 0x00, 0x44, 0xfe, 0xff, 0xff,
  0x52, 0xff, 0xff, 0xff, 0x04, 0x00, 0x00, 0x00, 0x40, 0x00, 0x00, 0x00,
  0x2c, 0xf9, 0x3c, 0x3e, 0xc2, 0xcf, 0xba, 0xbe, 0xab, 0x43, 0x13, 0x3e,
  0xf7, 0x05, 0xb8, 0xbc, 0x81, 0x08, 0x27, 0x3e, 0xf1, 0x46, 0x35, 0xbd,
  0xe7, 0xdd, 0xc7, 0x3d, 0x7e, 0x9b, 0x94, 0xbe, 0xbb, 0x67, 0xb5, 0xbe,
  0xa8, 0xd7, 0x45, 0x3d, 0x86, 0xcc, 0x93, 0x3e, 0xf6, 0x4d, 0x26, 0xbe,
  0xd9, 0x50, 0x9c, 0x3d, 0x90, 0x79, 0x09, 0x3e, 0xb7, 0xe0, 0x68, 0x3e,
  0x59, 0xc7, 0x8b, 0x3d, 0x6a, 0xff, 0xff, 0xff, 0x10, 0x00, 0x00, 0x00,
  0x03, 0x00, 0x00, 0x00, 0x10, 0x00, 0x00, 0x00, 0x4c, 0x00, 0x00, 0x00,
  0x01, 0x00, 0x00, 0x00, 0x10, 0x00, 0x00, 0x00, 0x36, 0x00, 0x00, 0x00,
  0x63, 0x6f, 0x6e, 0x76, 0x6f, 0x6c, 0x75, 0x74, 0x69, 0x6f, 0x6e, 0x61,
  0x6c, 0x2f, 0x63, 0x6f, 0x6e, 0x76, 0x32, 0x64, 0x5f, 0x31, 0x2f, 0x42,
  0x69, 0x61, 0x73, 0x41, 0x64, 0x64, 0x2f, 0x52, 0x65, 0x61, 0x64, 0x56,
  0x61, 0x72, 0x69, 0x61, 0x62, 0x6c, 0x65, 0x4f, 0x70, 0x2f, 0x72, 0x65,
  0x73, 0x6f, 0x75, 0x72, 0x63, 0x65, 0x00, 0x00, 0x04, 0x00, 0x06, 0x00,
  0x04, 0x00, 0x00, 0x00, 0x00, 0x00, 0x06, 0x00, 0x08, 0x00, 0x04, 0x00,
  0x06, 0x00, 0x00, 0x00, 0x04, 0x00, 0x00, 0x00, 0x20, 0x00, 0x00, 0x00,
  0x4c, 0xee, 0x53, 0xbe, 0xe5, 0x1c, 0x04, 0xbe, 0x4d, 0xc9, 0x28, 0xbd,
  0xab, 0x38, 0x48, 0xbe, 0xd1, 0x05, 0x0a, 0xbd, 0xdf, 0x78, 0x1f, 0xbd,
  0xb4, 0x55, 0xeb, 0x3c, 0xc4, 0xe1, 0x9d, 0xbd, 0x00, 0x00, 0x0e, 0x00,
  0x14, 0x00, 0x04, 0x00, 0x00, 0x00, 0x08, 0x00, 0x0c, 0x00, 0x10, 0x00,
  0x0e, 0x00, 0x00, 0x00, 0x10, 0x00, 0x00, 0x00, 0x02, 0x00, 0x00, 0x00,
  0x10, 0x00, 0x00, 0x00, 0x48, 0x00, 0x00, 0x00, 0x01, 0x00, 0x00, 0x00,
  0x08, 0x00, 0x00, 0x00, 0x34, 0x00, 0x00, 0x00, 0x63, 0x6f, 0x6e, 0x76,
  0x6f, 0x6c, 0x75, 0x74, 0x69, 0x6f, 0x6e, 0x61, 0x6c, 0x2f, 0x63, 0x6f,
  0x6e, 0x76, 0x32, 0x64, 0x2f, 0x42, 0x69, 0x61, 0x73, 0x41, 0x64, 0x64,
  0x2f, 0x52, 0x65, 0x61, 0x64, 0x56, 0x61, 0x72, 0x69, 0x61, 0x62, 0x6c,
  0x65, 0x4f, 0x70, 0x2f, 0x72, 0x65, 0x73, 0x6f, 0x75, 0x72, 0x63, 0x65,
  0x00, 0x00, 0x00, 0x00, 0x90, 0xff, 0xff, 0xff, 0x14, 0x00, 0x18, 0x00,
  0x04, 0x00, 0x00, 0x00, 0x08, 0x00, 0x0c, 0x00, 0x10, 0x00, 0x00, 0x00,
  0x00, 0x00, 0x14, 0x00, 0x14, 0x00, 0x00, 0x00, 0x14, 0x00, 0x00, 0x00,
  0x01, 0x00, 0x00, 0x00, 0x20, 0x00, 0x00, 0x00, 0x44, 0x00, 0x00, 0x00,
  0x2c, 0x00, 0x00, 0x00, 0x04, 0x00, 0x00, 0x00, 0x01, 0x00, 0x00, 0x00,
  0x0a, 0x00, 0x00, 0x00, 0x03, 0x00, 0x00, 0x00, 0x01, 0x00, 0x00, 0x00,
  0x0c, 0x00, 0x00, 0x00, 0x69, 0x6e, 0x70, 0x75, 0x74, 0x5f, 0x6c, 0x61,
  0x79, 0x65, 0x72, 0x73, 0x00, 0x00, 0x00, 0x00, 0x04, 0x00, 0x00, 0x00,
  0xff, 0xff, 0xff, 0xff, 0x0a, 0x00, 0x00, 0x00, 0x03, 0x00, 0x00, 0x00,
  0x01, 0x00, 0x00, 0x00, 0xfc, 0xff, 0xff, 0xff, 0x04, 0x00, 0x04, 0x00,
  0x04, 0x00, 0x00, 0x00
};
const int mdl_len = 7768;
